{
  "version": "1.0",
  "truncation": null,
  "padding": null,
  "added_tokens": [
    {
      "id": 0,
      "content": "<|pad|>",
      "single_word": false,
      "lstrip": false,
      "rstrip": false,
      "normalized": false,
      "special": true
    },
    {
      "id": 1,
      "content": "<|bos|>",
      "single_word": false,
      "lstrip": false,
      "rstrip": false,
      "normalized": false,
      "special": true
    },
    {
      "id": 2,
      "content": "<|eos|>",
      "single_word": false,
      "lstrip": false,
      "rstrip": false,
      "normalized": false,
      "special": true
    },
    {
      "id": 3,
      "content": "<|unk|>",
      "single_word": false,
      "lstrip": false,
      "rstrip": false,
      "normalized": false,
      "special": true
    }
  ],
  "normalizer": null,
  "pre_tokenizer": {
    "type": "ByteLevel",
    "add_prefix_space": true,
    "trim_offsets": true,
    "use_regex": true
  },
  "post_processor": null,
  "decoder": {
    "type": "ByteLevel",
    "add_prefix_space": true,
    "trim_offsets": true,
    "use_regex": true
  },
  "model": {
    "type": "BPE",
    "dropout": null,
    "unk_token": null,
    "continuing_subword_prefix": null,
    "end_of_word_suffix": null,
    "fuse_unk": false,
    "byte_fallback": false,
    "ignore_merges": false,
    "vocab": {
      "<|pad|>": 0,
      "<|bos|>": 1,
      "<|eos|>": 2,
      "<|unk|>": 3,
      "!": 4,
      "\"": 5,
      "#": 6,
      "$": 7,
      "%": 8,
      "&": 9,
      "'": 10,
      "(": 11,
      ")": 12,
      "*": 13,
      "+": 14,
      ",": 15,
      "-": 16,
      ".": 17,
      "/": 18,
      "0": 19,
      "1": 20,
      "2": 21,
      "3": 22,
      "4": 23,
      "5": 24,
      "6": 25,
      "7": 26,
      "8": 27,
      "9": 28,
      ":": 29,
      ";": 30,
      "<": 31,
      "=": 32,
      ">": 33,
      "?": 34,
      "@": 35,
      "A": 36,
      "B": 37,
      "C": 38,
      "D": 39,
      "E": 40,
      "F": 41,
      "G": 42,
      "H": 43,
      "I": 44,
      "J": 45,
      "K": 46,
      "L": 47,
      "M": 48,
      "N": 49,
      "O": 50,
      "P": 51,
      "Q": 52,
      "R": 53,
      "S": 54,
      "T": 55,
      "U": 56,
      "V": 57,
      "W": 58,
      "X": 59,
      "Y": 60,
      "Z": 61,
      "[": 62,
      "\\": 63,
      "]": 64,
      "^": 65,
      "_": 66,
      "`": 67,
      "a": 68,
      "b": 69,
      "c": 70,
      "d": 71,
      "e": 72,
      "f": 73,
      "g": 74,
      "h": 75,
      "i": 76,
      "j": 77,
      "k": 78,
      "l": 79,
      "m": 80,
      "n": 81,
      "o": 82,
      "p": 83,
      "q": 84,
      "r": 85,
      "s": 86,
      "t": 87,
      "u": 88,
      "v": 89,
      "w": 90,
      "x": 91,
      "y": 92,
      "z": 93,
      "{": 94,
      "|": 95,
      "}": 96,
      "~": 97,
      "¡": 98,
      "¢": 99,
      "£": 100,
      "¤": 101,
      "¥": 102,
      "¦": 103,
      "§": 104,
      "¨": 105,
      "©": 106,
      "ª": 107,
      "«": 108,
      "¬": 109,
      "®": 110,
      "¯": 111,
      "°": 112,
      "±": 113,
      "²": 114,
      "³": 115,
      "´": 116,
      "µ": 117,
      "¶": 118,
      "·": 119,
      "¸": 120,
      "¹": 121,
      "º": 122,
      "»": 123,
      "¼": 124,
      "½": 125,
      "¾": 126,
      "¿": 127,
      "À": 128,
      "Á": 129,
      "Â": 130,
      "Ã": 131,
      "Ä": 132,
      "Å": 133,
      "Æ": 134,
      "Ç": 135,
      "È": 136,
      "É": 137,
      "Ê": 138,
      "Ë": 139,
      "Ì": 140,
      "Í": 141,
      "Î": 142,
      "Ï": 143,
      "Ð": 144,
      "Ñ": 145,
      "Ò": 146,
      "Ó": 147,
      "Ô": 148,
      "Õ": 149,
      "Ö": 150,
      "×": 151,
      "Ø": 152,
      "Ù": 153,
      "Ú": 154,
      "Û": 155,
      "Ü": 156,
      "Ý": 157,
      "Þ": 158,
      "ß": 159,
      "à": 160,
      "á": 161,
      "â": 162,
      "ã": 163,
      "ä": 164,
      "å": 165,
      "æ": 166,
      "ç": 167,
      "è": 168,
      "é": 169,
      "ê": 170,
      "ë": 171,
      "ì": 172,
      "í": 173,
      "î": 174,
      "ï": 175,
      "ð": 176,
      "ñ": 177,
      "ò": 178,
      "ó": 179,
      "ô": 180,
      "õ": 181,
      "ö": 182,
      "÷": 183,
      "ø": 184,
      "ù": 185,
      "ú": 186,
      "û": 187,
      "ü": 188,
      "ý": 189,
      "þ": 190,
      "ÿ": 191,
      "Ā": 192,
      "ā": 193,
      "Ă": 194,
      "ă": 195,
      "Ą": 196,
      "ą": 197,
      "Ć": 198,
      "ć": 199,
      "Ĉ": 200,
      "ĉ": 201,
      "Ċ": 202,
      "ċ": 203,
      "Č": 204,
      "č": 205,
      "Ď": 206,
      "ď": 207,
      "Đ": 208,
      "đ": 209,
      "Ē": 210,
      "ē": 211,
      "Ĕ": 212,
      "ĕ": 213,
      "Ė": 214,
      "ė": 215,
      "Ę": 216,
      "ę": 217,
      "Ě": 218,
      "ě": 219,
      "Ĝ": 220,
      "ĝ": 221,
      "Ğ": 222,
      "ğ": 223,
      "Ġ": 224,
      "ġ": 225,
      "Ģ": 226,
      "ģ": 227,
      "Ĥ": 228,
      "ĥ": 229,
      "Ħ": 230,
      "ħ": 231,
      "Ĩ": 232,
      "ĩ": 233,
      "Ī": 234,
      "ī": 235,
      "Ĭ": 236,
      "ĭ": 237,
      "Į": 238,
      "į": 239,
      "İ": 240,
      "ı": 241,
      "Ĳ": 242,
      "ĳ": 243,
      "Ĵ": 244,
      "ĵ": 245,
      "Ķ": 246,
      "ķ": 247,
      "ĸ": 248,
      "Ĺ": 249,
      "ĺ": 250,
      "Ļ": 251,
      "ļ": 252,
      "Ľ": 253,
      "ľ": 254,
      "Ŀ": 255,
      "ŀ": 256,
      "Ł": 257,
      "ł": 258,
      "Ń": 259,
      "Ġt": 260,
      "he": 261,
      "Ġa": 262,
      "in": 263,
      "Ġthe": 264,
      "Ġo": 265,
      "er": 266,
      "Ġw": 267,
      "Ġs": 268,
      "re": 269,
      "nd": 270,
      "is": 271,
      "Ġof": 272,
      "on": 273,
      "at": 274,
      "ed": 275,
      "en": 276,
      "it": 277,
      "Ġb": 278,
      "Ġf": 279,
      "Ġc": 280,
      "Ġh": 281,
      "ou": 282,
      "ar": 283,
      "Ġm": 284,
      "or": 285,
      "ing": 286,
      "es": 287,
      "Ġp": 288,
      "Ġand": 289,
      "Ġin": 290,
      "Ġto": 291,
      "an": 292,
      "Ġd": 293,
      "ll": 294,
      "Ġth": 295,
      "as": 296,
      "Ġl": 297,
      "ro": 298,
      "ic": 299,
      "Ġn": 300,
      "ut": 301,
      "ion": 302,
      "le": 303,
      "Ġe": 304,
      "Ġbe": 305,
      "Ġhe": 306,
      "st": 307,
      "Ġg": 308,
      "ent": 309,
      "ct": 310,
      "Ġre": 311,
      "ly": 312,
      "ad": 313,
      "om": 314,
      "al": 315,
      "ith": 316,
      "gh": 317,
      "ot": 318,
      "ve": 319,
      "Ġst": 320,
      "ce": 321,
      "se": 322,
      "Ġwh": 323,
      "ri": 324,
      "Ġwith": 325,
      "ow": 326,
      "im": 327,
      "Ġon": 328,
      "Ġis": 329,
      "et": 330,
      "Ġit": 331,
      "Ġthat": 332,
      "id": 333,
      "ĠT": 334,
      "Ġfor": 335,
      "Ġhis": 336,
      "am": 337,
      "ld": 338,
      "Ġu": 339,
      "ir": 340,
      "ver": 341,
      "Ġwas": 342,
      "ĠI": 343,
      "..": 344,
      "ur": 345,
      "Ġas": 346,
      "ay": 347,
      "ght": 348,
      "ĠP": 349,
      "Ġy": 350,
      "Ġat": 351,
      "ch": 352,
      "ter": 353,
      "ĠA": 354,
      "Ġan": 355,
      "ect": 356,
      "ation": 357,
      "ĠS": 358,
      "ill": 359,
      "ain": 360,
      "ĠH": 361,
      "Ġ\"": 362,
      "Ġha": 363,
      "her": 364,
      "Ġnot": 365,
      "Ġby": 366,
      "Ġyou": 367,
      "Ġor": 368,
      "ich": 369,
      "Ġsu": 370,
      "Ġse": 371,
      "Ġcon": 372,
      "all": 373,
      "if": 374,
      "ul": 375,
      "ra": 376,
      "il": 377,
      "rom": 378,
      "ĠThe": 379,
      "Ġwhich": 380,
      "oo": 381,
      "em": 382,
      "pp": 383,
      "ĠG": 384,
      "th": 385,
      "ess": 386,
      "ĠC": 387,
      "Ġsh": 388,
      "us": 389,
      "Ġthis": 390,
      "ke": 391,
      "Ġhad": 392,
      "Ġcom": 393,
      "el": 394,
      "Ġv": 395,
      "Ġmo": 396,
      "ĠM": 397,
      "est": 398,
      "Ġ1": 399,
      "ble": 400,
      "ge": 401,
      "ight": 402,
      "'s": 403,
      "qu": 404,
      "Ġfrom": 405,
      "ĠB": 406,
      "Ġne": 407,
      "Ġwor": 408,
      "Ġex": 409,
      "ers": 410,
      "Ġare": 411,
      "res": 412,
      "ist": 413,
      "ol": 414,
      "ber": 415,
      "Ġstar": 416,
      "ould": 417,
      "ac": 418,
      "....": 419,
      "op": 420,
      "Ġpro": 421,
      "ell": 422,
      "ous": 423,
      "um": 424,
      "Ġhim": 425,
      "ard": 426,
      "Ġso": 427,
      "Ġwhe": 428,
      "ive": 429,
      "Ġhave": 430,
      "and": 431,
      "ust": 432,
      "ound": 433,
      "ĠW": 434,
      "ate": 435,
      "ap": 436,
      "Ġall": 437,
      "Ġde": 438,
      "ast": 439,
      "os": 440,
      "ĠF": 441,
      "Ġbut": 442,
      "ject": 443,
      "ere": 444,
      "ass": 445,
      "Ġal": 446,
      "red": 447,
      "un": 448,
      "Ġr": 449,
      "Ġup": 450,
      "ĠL": 451,
      "our": 452,
      "ant": 453,
      "ther": 454,
      "Ġone": 455,
      "Ġsa": 456,
      "Ġwork": 457,
      "Ġsp": 458,
      "ie": 459,
      "Ġch": 460,
      "ak": 461,
      "--": 462,
      "Ġwill": 463,
      "out": 464,
      "ort": 465,
      "Ġwere": 466,
      "ear": 467,
      "ĠPro": 468,
      "Ġher": 469,
      "ome": 470,
      "Ġwho": 471,
      "ĠN": 472,
      "ig": 473,
      "nt": 474,
      "iv": 475,
      "uten": 476,
      "ure": 477,
      "berg": 478,
      "utenberg": 479,
      "Ġk": 480,
      "Ġint": 481,
      "Ġwe": 482,
      "Ġman": 483,
      "Ġ(": 484,
      "Ġtheir": 485,
      "ag": 486,
      "ity": 487,
      "ong": 488,
      "Ġar": 489,
      "ĠO": 490,
      "ated": 491,
      "ĠD": 492,
      "Ġab": 493,
      "able": 494,
      "Ġdo": 495,
      ",\"": 496,
      "very": 497,
      "cc": 498,
      "Ġme": 499,
      ".\"": 500,
      "Ġdis": 501,
      "ance": 502,
      "ine": 503,
      "ĠE": 504,
      "ook": 505,
      "Ġno": 506,
      "pt": 507,
      "ough": 508,
      "reat": 509,
      "ĠGutenberg": 510,
      "Ġob": 511,
      "Ġpl": 512,
      "per": 513,
      "Ġthey": 514,
      "itt": 515,
      "ind": 516,
      "art": 517,
      "ame": 518,
      "Ġag": 519,
      "âĢ": 520,
      "The": 521,
      "Ġcomp": 522,
      "ies": 523,
      "ry": 524,
      "ood": 525,
      "Ġout": 526,
      "Ġbeen": 527,
      "ĠR": 528,
      "ĠProject": 529,
      "Ġcan": 530,
      "âĢĶ": 531,
      "Ġthem": 532,
      "Ġper": 533,
      "Ġfe": 534,
      "Ġits": 535,
      "ĠPut": 536,
      "Ġtw": 537,
      "Ġen": 538,
      "ci": 539,
      "ud": 540,
      "Ġany": 541,
      "ore": 542,
      "ace": 543,
      "!\"": 544,
      "ven": 545,
      "nam": 546,
      "hed": 547,
      "ish": 548,
      "Ġle": 549,
      "Ġsaid": 550,
      "ff": 551,
      "ond": 552,
      "pl": 553,
      "ations": 554,
      "ost": 555,
      "Ġapp": 556,
      "ide": 557,
      "Ġun": 558,
      "ence": 559,
      "ary": 560,
      "Ġstars": 561,
      "tain": 562,
      "ally": 563,
      "Ġwhen": 564,
      "Ġro": 565,
      "ings": 566,
      "Ġli": 567,
      "ĠPutnam": 568,
      "Ġother": 569,
      "ark": 570,
      "end": 571,
      "right": 572,
      "ĠHe": 573,
      "sel": 574,
      "Ġthan": 575,
      "Ġwould": 576,
      "Ġhas": 577,
      "Ġinto": 578,
      "ab": 579,
      "gl": 580,
      "Ġus": 581,
      "Ġad": 582,
      "ose": 583,
      "Ġim": 584,
      "one": 585,
      "ount": 586,
      "Ġtim": 587,
      "Ġfl": 588,
      "od": 589,
      "ĠIt": 590,
      "Ġmore": 591,
      "are": 592,
      "ment": 593,
      "Ġcl": 594,
      "Ġmay": 595,
      "Ġtr": 596,
      "Ġsome": 597,
      "cl": 598,
      "ire": 599,
      "Ġthere": 600,
      "00": 601,
      "urn": 602,
      "ck": 603,
      "Ġgl": 604,
      "wn": 605,
      "ions": 606,
      "own": 607,
      "ree": 608,
      "Ġdist": 609,
      "ile": 610,
      "Ġqu": 611,
      "........": 612,
      "Ġmy": 613,
      "ake": 614,
      "ep": 615,
      "au": 616,
      "Ġkn": 617,
      "ph": 618,
      "Ġgreat": 619,
      "Ġupon": 620,
      "ade": 621,
      "fter": 622,
      "Ġabout": 623,
      "ron": 624,
      "ays": 625,
      "Ġsm": 626,
      "ull": 627,
      "Ġgr": 628,
      "ach": 629,
      "ian": 630,
      "Ġvery": 631,
      "ack": 632,
      "Ġacc": 633,
      "Ġey": 634,
      "lect": 635,
      "rib": 636,
      "oll": 637,
      "ought": 638,
      "int": 639,
      "ener": 640,
      "ved": 641,
      "ang": 642,
      "Ġour": 643,
      "og": 644,
      "Ġtwo": 645,
      "hing": 646,
      "nder": 647,
      "hat": 648,
      "Ġif": 649,
      "Ġgo": 650,
      "ĠY": 651,
      "ress": 652,
      "ward": 653,
      "Ġ2": 654,
      "ĠU": 655,
      "age": 656,
      "ittle": 657,
      "ord": 658,
      "Ġform": 659,
      "Ġthen": 660,
      "iz": 661,
      "Ġlittle": 662,
      "Ġfir": 663,
      "Ġcomm": 664,
      "Ġlook": 665,
      "Ġlike": 666,
      "Ġtime": 667,
      "Ġshe": 668,
      "ite": 669,
      "esc": 670,
      "ue": 671,
      "Ġpre": 672,
      "Ġthese": 673,
      "act": 674,
      "Ġafter": 675,
      "Ġpart": 676,
      "self": 677,
      "Ġhand": 678,
      "Ġam": 679,
      "Ġrem": 680,
      "ĠIn": 681,
      "Ġcop": 682,
      "Ġonly": 683,
      "av": 684,
      "Ġmen": 685,
      "ink": 686,
      "Ġover": 687,
      "Ġconst": 688,
      "ied": 689,
      "Ġmade": 690,
      "Ġatt": 691,
      "for": 692,
      "te": 693,
      "ub": 694,
      "ily": 695,
      "ice": 696,
      "ty": 697,
      "Ġagain": 698,
      "we": 699,
      "ces": 700,
      "fore": 701,
      "ser": 702,
      "Ġj": 703,
      "Ġpo": 704,
      "ĠTh": 705,
      "fer": 706,
      "rit": 707,
      "Ġmust": 708,
      "Ġfirst": 709,
      "Ġbl": 710,
      "Ġpos": 711,
      "Ġsee": 712,
      "?\"": 713,
      "so": 714,
      "ful": 715,
      "uch": 716,
      "Ġyour": 717,
      "the": 718,
      "Ġrep": 719,
      "ors": 720,
      "old": 721,
      "Ġthr": 722,
      "Ġnow": 723,
      "Ġbet": 724,
      "Ġwhat": 725,
      "erm": 726,
      "ition": 727,
      "Ġtoo": 728,
      "ans": 729,
      "Ġelect": 730,
      "Ġnear": 731,
      "Ġunder": 732,
      "ft": 733,
      "Ġyear": 734,
      "Ġinter": 735,
      "ower": 736,
      "Ġshould": 737,
      "Ġsc": 738,
      "ates": 739,
      "Ġind": 740,
      "Ġbefore": 741,
      "Ġsuch": 742,
      "Ġoff": 743,
      "Ġcont": 744,
      "si": 745,
      "resent": 746,
      "Ġwhere": 747,
      "ru": 748,
      "ater": 749,
      "Ġmost": 750,
      "Ġres": 751,
      "ick": 752,
      "Ġimp": 753,
      "ement": 754,
      "),": 755,
      "co": 756,
      "with": 757,
      "orn": 758,
      "Ġlong": 759,
      "ĠJ": 760,
      "atter": 761,
      "Ġworks": 762,
      "Ġbeing": 763,
      "ious": 764,
      "glass": 765,
      "ced": 766,
      "ren": 767,
      "Ġcould": 768,
      "ife": 769,
      "Ġobser": 770,
      "ical": 771,
      "Ġeven": 772,
      "eneral": 773,
      "Ġcopy": 774,
      "der": 775,
      "ail": 776,
      "ted": 777,
      "iss": 778,
      "Ġthrough": 779,
      "Ġseem": 780,
      "air": 781,
      "ase": 782,
      "ĠV": 783,
      "Ġmuch": 784,
      "ign": 785,
      "oy": 786,
      "Ġpass": 787,
      "led": 788,
      "ove": 789,
      "Ġ3": 790,
      "Ġold": 791,
      "Ġear": 792,
      "Ġsun": 793,
      "ER": 794,
      "du": 795,
      "ĠBut": 796,
      "igh": 797,
      "ited": 798,
      "Ġgood": 799,
      "hes": 800,
      "ction": 801,
      "ĠSt": 802,
      "ribut": 803,
      "aw": 804,
      "Ġcons": 805,
      "Ġwell": 806,
      "ather": 807,
      "Ġlar": 808,
      "ollow": 809,
      "ps": 810,
      "Ġhow": 811,
      "way": 812,
      "Ġlight": 813,
      "Ġbec": 814,
      "form": 815,
      "Ġret": 816,
      "Ġwhile": 817,
      "ving": 818,
      "ense": 819,
      "Ġexp": 820,
      "within": 821,
      "und": 822,
      "ected": 823,
      "ran": 824,
      "Ġpe": 825,
      "Ġmany": 826,
      "Ġconstell": 827,
      "mer": 828,
      "Ġreg": 829,
      "ath": 830,
      "Ġbel": 831,
      "row": 832,
      "Ġsmall": 833,
      "less": 834,
      "ual": 835,
      "Ġfound": 836,
      "ular": 837,
      "cor": 838,
      "ret": 839,
      "Ġfollow": 840,
      "Ġthought": 841,
      "Ġseen": 842,
      "Ġent": 843,
      "Ġthose": 844,
      "Ġwithout": 845,
      "ĠIf": 846,
      "ared": 847,
      "ness": 848,
      "Ġsl": 849,
      "Ġpr": 850,
      "ton": 851,
      "Ġra": 852,
      "Ġdown": 853,
      "Ġem": 854,
      "ronic": 855,
      "ise": 856,
      "ens": 857,
      "Ġread": 858,
      "Ġac": 859,
      "Ġsur": 860,
      "Ġhead": 861,
      "ield": 862,
      "ĠThis": 863,
      "Ġelectronic": 864,
      "Ġfar": 865,
      "Ġdon": 866,
      "Ġdif": 867,
      "ĠAnd": 868,
      "ix": 869,
      "Ġmill": 870,
      "Ġvis": 871,
      "Ġeyes": 872,
      "other": 873,
      "ory": 874,
      "ĠAr": 875,
      "Ġcall": 876,
      "ict": 877,
      "Ġspe": 878,
      "Ġknow": 879,
      "Ġown": 880,
      "Ġmet": 881,
      "Ġlife": 882,
      "Ġsupp": 883,
      "Ġsec": 884,
      "ult": 885,
      "Ġplan": 886,
      "Ġdes": 887,
      "aking": 888,
      "cess": 889,
      "Ġmake": 890,
      "Ġbeg": 891,
      "Ġhimself": 892,
      "'t": 893,
      "ipp": 894,
      "vent": 895,
      "Ġfull": 896,
      "uri": 897,
      "Ġke": 898,
      "Ġco": 899,
      "ial": 900,
      "oth": 901,
      "ĠTH": 902,
      "Ġchar": 903,
      "Ġway": 904,
      "Ġface": 905,
      "oundation": 906,
      "ĠFoundation": 907,
      "Ġ'": 908,
      "Ġsame": 909,
      "cept": 910,
      "ĠNe": 911,
      "ĠYou": 912,
      "Ġyears": 913,
      "Ġ4": 914,
      "Ġ5": 915,
      "Ġback": 916,
      "Ġarm": 917,
      "Ġoper": 918,
      "Ġset": 919,
      "ween": 920,
      "hen": 921,
      "Ġday": 922,
      "Ġstill": 923,
      "Ġprov": 924,
      "Ġappear": 925,
      "ered": 926,
      "arz": 927,
      "Ġmoon": 928,
      "Ġnew": 929,
      "ild": 930,
      "Ġ[": 931,
      "Ġglass": 932,
      "ip": 933,
      "ne": 934,
      "Ġpower": 935,
      "Ġshow": 936,
      "Ġinst": 937,
      "ib": 938,
      "Ġthree": 939,
      "ĠCh": 940,
      "ĠBrit": 941,
      "Ġ*": 942,
      "read": 943,
      "Ġalso": 944,
      "ertain": 945,
      "Ġincl": 946,
      "ently": 947,
      "ried": 948,
      "ope": 949,
      "cy": 950,
      "Ġturn": 951,
      "Ġdet": 952,
      "ments": 953,
      "ave": 954,
      "Ġcount": 955,
      "Ġ([": 956,
      "Ġbetween": 957,
      "Ġlast": 958,
      "ĠAl": 959,
      "Ġeye": 960,
      "oc": 961,
      "Ġsk": 962,
      "Ġdid": 963,
      "aint": 964,
      "Ġdistribut": 965,
      "erms": 966,
      "ĠBritish": 967,
      "ever": 968,
      "Ġmap": 969,
      "Ġrec": 970,
      "Ġact": 971,
      "Ġcent": 972,
      "ros": 973,
      "Ġuse": 974,
      "Ġdisco": 975,
      "ause": 976,
      "Ġcar": 977,
      "Ġevery": 978,
      "Ġrece": 979,
      "Ġinterest": 980,
      "Ġplanet": 981,
      "EN": 982,
      "Ġcame": 983,
      "Ġend": 984,
      "ĠSwithin": 985,
      "ĠGeneral": 986,
      "Ġpoint": 987,
      "Ġaway": 988,
      "ished": 989,
      "ating": 990,
      "Ġfield": 991,
      "Ġpur": 992,
      "Ġhere": 993,
      "omet": 994,
      "ection": 995,
      "ract": 996,
      "Ġobject": 997,
      "ia": 998,
      "iter": 999,
      "Ġeff": 1000,
      "Ġrequ": 1001,
      "Ġsub": 1002,
      "Ġlarge": 1003,
      "ier": 1004,
      "Ġwar": 1005,
      "ons": 1006,
      "Ġbro": 1007,
      "ĠAd": 1008,
      "ince": 1009,
      "Ġdef": 1010,
      "osed": 1011,
      "ds": 1012,
      "Ġser": 1013,
      "Ġbr": 1014,
      "Ġbright": 1015,
      "Ġmight": 1016,
      "Ġext": 1017,
      "000": 1018,
      "Ġcommand": 1019,
      "Ġmin": 1020,
      "Ġpar": 1021,
      "ived": 1022,
      "ude": 1023,
      "It": 1024,
      "amp": 1025,
      "Ġanother": 1026,
      "Ġfeet": 1027,
      "Ġsent": 1028,
      "ened": 1029,
      "Ġfind": 1030,
      "Ġmid": 1031,
      "Ġthink": 1032,
      "Ġnum": 1033,
      "alf": 1034,
      "ains": 1035,
      "Ġocc": 1036,
      "Ġsay": 1037,
      "ork": 1038,
      "Ġdays": 1039,
      "ĠEn": 1040,
      "Ġconstellation": 1041,
      "Ġterms": 1042,
      "rier": 1043,
      "Ġorder": 1044,
      "Ġ17": 1045,
      "Ġenem": 1046,
      "man": 1047,
      "ĠK": 1048,
      "Ġsat": 1049,
      "Ġpers": 1050,
      "Ġnight": 1051,
      "Ġref": 1052,
      ",--": 1053,
      "What": 1054,
      "aut": 1055,
      "ling": 1056,
      "Ġsil": 1057,
      "Ġcour": 1058,
      "arch": 1059,
      "Ġlaw": 1060,
      "Ġwithin": 1061,
      "................": 1062,
      "ross": 1063,
      "most": 1064,
      "ature": 1065,
      "ĠOF": 1066,
      "ably": 1067,
      "Ġadd": 1068,
      "ner": 1069,
      "ric": 1070,
      "Ġright": 1071,
      "Ġop": 1072,
      "Ġinc": 1073,
      "Ġthough": 1074,
      "ents": 1075,
      "Ġyet": 1076,
      "ĠTHE": 1077,
      "Ġopera": 1078,
      "bul": 1079,
      "ures": 1080,
      "Ġph": 1081,
      "Ġnever": 1082,
      "iew": 1083,
      "Ġcalled": 1084,
      "ired": 1085,
      "Ġlet": 1086,
      "ĠScor": 1087,
      "cul": 1088,
      "ked": 1089,
      "ting": 1090,
      "Ġdou": 1091,
      "ific": 1092,
      "raph": 1093,
      "ĠEngl": 1094,
      "den": 1095,
      "tle": 1096,
      "Ġcol": 1097,
      "Ġmil": 1098,
      "agn": 1099,
      "az": 1100,
      "Ġ6": 1101,
      "Ġcap": 1102,
      "Ġpresent": 1103,
      "aster": 1104,
      "ĠUn": 1105,
      "Ġdiffer": 1106,
      "xt": 1107,
      "Ġless": 1108,
      "Ġfew": 1109,
      "Ġinclud": 1110,
      "aven": 1111,
      "Ġfour": 1112,
      "Ġleft": 1113,
      "Ġcle": 1114,
      "Ġhund": 1115,
      "Ġhalf": 1116,
      "eta": 1117,
      "Ġhundred": 1118,
      "les": 1119,
      "ves": 1120,
      "Ġbre": 1121,
      "Ġbri": 1122,
      "Ġfin": 1123,
      "ĠHarz": 1124,
      "Ġagre": 1125,
      "Ġagainst": 1126,
      "ĠAdam": 1127,
      "ible": 1128,
      "pe": 1129,
      "ined": 1130,
      "ars": 1131,
      "Ġdesc": 1132,
      "Ġonce": 1133,
      "ĠCon": 1134,
      "Ġadv": 1135,
      "ND": 1136,
      "Ġ7": 1137,
      "Ġcome": 1138,
      "Ġ18": 1139,
      "Ġcopyright": 1140,
      "Ġreturn": 1141,
      "Ġenemy": 1142,
      "Book": 1143,
      "gg": 1144,
      "Ġtel": 1145,
      "ene": 1146,
      "Ġcertain": 1147,
      "ashing": 1148,
      "uth": 1149,
      "als": 1150,
      "Ġtelesc": 1151,
      "He": 1152,
      "II": 1153,
      "iver": 1154,
      "ng": 1155,
      "Ġ_": 1156,
      "Ġdire": 1157,
      "Ġequ": 1158,
      "vel": 1159,
      "Ġconf": 1160,
      "Ġplace": 1161,
      "Ġ9": 1162,
      "Ġside": 1163,
      "Ġsomet": 1164,
      "Ġfri": 1165,
      "Ġthou": 1166,
      "Ġstr": 1167,
      "ief": 1168,
      "aken": 1169,
      "Ġri": 1170,
      "Ġsy": 1171,
      "ither": 1172,
      "Ġche": 1173,
      "ari": 1174,
      "Ġgiv": 1175,
      "ung": 1176,
      "Ġjust": 1177,
      "Ġseemed": 1178,
      "Ġpa": 1179,
      "Ġste": 1180,
      "ax": 1181,
      "ines": 1182,
      "its": 1183,
      "ĠeBook": 1184,
      "Ġred": 1185,
      "ĠInd": 1186,
      "Ġmod": 1187,
      "sw": 1188,
      "ways": 1189,
      "âĦ": 1190,
      "here": 1191,
      "Ġhigh": 1192,
      "Ġabove": 1193,
      "onder": 1194,
      "Ġrepresent": 1195,
      "ippin": 1196,
      "âĦ¢": 1197,
      "ON": 1198,
      "lic": 1199,
      "ock": 1200,
      "pect": 1201,
      "Ġfore": 1202,
      "Ġheaven": 1203,
      "Ġfort": 1204,
      "Ġ10": 1205,
      "In": 1206,
      "ative": 1207,
      "Ġfo": 1208,
      "ouse": 1209,
      "Ġnor": 1210,
      "ustr": 1211,
      "Ġearth": 1212,
      "Ġagreement": 1213,
      "OR": 1214,
      "Ġair": 1215,
      "ĠSe": 1216,
      "Ġyoung": 1217,
      "Ġshall": 1218,
      "Ġwhose": 1219,
      "Ġeng": 1220,
      "rench": 1221,
      "Ġsecond": 1222,
      ".--": 1223,
      "ks": 1224,
      "Ġwent": 1225,
      "Ġsw": 1226,
      "ason": 1227,
      "Ġass": 1228,
      "Ġdep": 1229,
      "Ġobtain": 1230,
      "Ġlooked": 1231,
      "ĠStates": 1232,
      "Th": 1233,
      "ched": 1234,
      "ning": 1235,
      "ying": 1236,
      "itude": 1237,
      "uring": 1238,
      "ĠThere": 1239,
      "Ġworld": 1240,
      "aps": 1241,
      "Ġround": 1242,
      "ody": 1243,
      "aught": 1244,
      "Ġfriend": 1245,
      "Ġhour": 1246,
      "Ġname": 1247,
      "Ġeach": 1248,
      "Ġalmost": 1249,
      "Ġdiscover": 1250,
      "rist": 1251,
      "Ġ8": 1252,
      "inci": 1253,
      "Ġboth": 1254,
      "Ġdark": 1255,
      "ousand": 1256,
      "Ġused": 1257,
      "Ġmidd": 1258,
      "ashington": 1259,
      "aj": 1260,
      "iam": 1261,
      "up": 1262,
      "Ġmark": 1263,
      "Ġthousand": 1264,
      "Ġbeh": 1265,
      "ĠNo": 1266,
      "sible": 1267,
      "ĠUnited": 1268,
      "Ġbo": 1269,
      "Ġfell": 1270,
      "Ġmon": 1271,
      "Ġgive": 1272,
      "ĠMr": 1273,
      "ached": 1274,
      "Ġalways": 1275,
      "Ġroom": 1276,
      "Ġnumber": 1277,
      "TI": 1278,
      "get": 1279,
      "king": 1280,
      "ured": 1281,
      "Ġsou": 1282,
      "Ġhor": 1283,
      "Ġmount": 1284,
      "lli": 1285,
      "tered": 1286,
      "Ġflour": 1287,
      "ĠArch": 1288,
      "Ġcountry": 1289,
      "ĠScorrier": 1290,
      "AR": 1291,
      "You": 1292,
      "med": 1293,
      "not": 1294,
      "Ġsol": 1295,
      "Ġfact": 1296,
      "Ġrest": 1297,
      "Ġansw": 1298,
      "Ġprodu": 1299,
      "Ġsold": 1300,
      "iterary": 1301,
      "bt": 1302,
      "ple": 1303,
      "ring": 1304,
      "Ġmagn": 1305,
      "Ġlatter": 1306,
      "elt": 1307,
      "Ġview": 1308,
      "Ġsoon": 1309,
      "Ġobserver": 1310,
      "ission": 1311,
      "ten": 1312,
      "err": 1313,
      "icense": 1314,
      "Ġget": 1315,
      "Ġhaving": 1316,
      "Ġsever": 1317,
      "Ġtimes": 1318,
      "Ġhands": 1319,
      "Ġoffic": 1320,
      "Ġminut": 1321,
      "li": 1322,
      "Ġir": 1323,
      "Ġwhom": 1324,
      "ĠArchive": 1325,
      "ey": 1326,
      "atch": 1327,
      "ention": 1328,
      "Ġprot": 1329,
      "itted": 1330,
      "Ġaccess": 1331,
      "Ġbetter": 1332,
      "Ġhowever": 1333,
      "Ġsim": 1334,
      "Ġfam": 1335,
      "ange": 1336,
      "Ġbeaut": 1337,
      "ople": 1338,
      "ĠLiterary": 1339,
      "Ġgrou": 1340,
      "Ġnearly": 1341,
      "Ġconsid": 1342,
      "ajor": 1343,
      "app": 1344,
      "inter": 1345,
      "rew": 1346,
      "itions": 1347,
      "Ġmar": 1348,
      "Ġstand": 1349,
      "ĠWar": 1350,
      "ĠWashington": 1351,
      "ĠEd": 1352,
      "ĠRe": 1353,
      "Ġremark": 1354,
      "reta": 1355,
      "Ġperson": 1356,
      "sess": 1357,
      "Ġtra": 1358,
      "Ġwater": 1359,
      "Ġbest": 1360,
      "ided": 1361,
      "amm": 1362,
      "ĠIs": 1363,
      "ĠAs": 1364,
      "ĠFrench": 1365,
      "Ġdonations": 1366,
      "ES": 1367,
      "IT": 1368,
      "use": 1369,
      "Ġtre": 1370,
      "Ġfree": 1371,
      "Ġcir": 1372,
      "Ġinf": 1373,
      "ades": 1374,
      "ury": 1375,
      "ĠAmer": 1376,
      "Ġnebul": 1377,
      "Ġmeans": 1378,
      "Ġcompan": 1379,
      "Ġtook": 1380,
      "ĠNew": 1381,
      "Ġinteresting": 1382,
      "ĠIndian": 1383,
      "ĠAmeric": 1384,
      "CH": 1385,
      "aim": 1386,
      "ger": 1387,
      "ls": 1388,
      "Ġill": 1389,
      "Ġaff": 1390,
      "Ġwa": 1391,
      "Ġfig": 1392,
      "ances": 1393,
      "Ġthy": 1394,
      "ots": 1395,
      "Ġunt": 1396,
      "Ġcontain": 1397,
      "els": 1398,
      "ĠWe": 1399,
      "Ġpeople": 1400,
      "Ġcourse": 1401,
      "cer": 1402,
      "ually": 1403,
      "Ġcor": 1404,
      "Ġhold": 1405,
      "Ġmind": 1406,
      "Ġput": 1407,
      "Ġinv": 1408,
      "ceed": 1409,
      "ĠTo": 1410,
      "ĠPippin": 1411,
      "Ġarr": 1412,
      "ended": 1413,
      "Ġtrad": 1414,
      "Ġheavens": 1415,
      "AN": 1416,
      "oz": 1417,
      "Ġtaken": 1418,
      "Ġever": 1419,
      "Ġgener": 1420,
      "enty": 1421,
      "Ġsuff": 1422,
      "agraph": 1423,
      "Ġdistance": 1424,
      "Ġpossess": 1425,
      "Ġsky": 1426,
      "Ġparagraph": 1427,
      "ristian": 1428,
      "Ġfather": 1429,
      "Ġdra": 1430,
      "Ġforth": 1431,
      "Ġprob": 1432,
      "ately": 1433,
      "Ġclose": 1434,
      "ully": 1435,
      "ized": 1436,
      "Ġturned": 1437,
      "ĠEdward": 1438,
      "ww": 1439,
      "Ġhome": 1440,
      "org": 1441,
      "Ġple": 1442,
      "Ġprom": 1443,
      "rown": 1444,
      "Ġgave": 1445,
      "ows": 1446,
      "Ġvol": 1447,
      "estion": 1448,
      "ages": 1449,
      "Ġart": 1450,
      ".,": 1451,
      "gin": 1452,
      "Ġed": 1453,
      "ont": 1454,
      "ities": 1455,
      "Ġhard": 1456,
      "Ġhouse": 1457,
      "Ġthus": 1458,
      "Ġgra": 1459,
      "Ġexper": 1460,
      "ops": 1461,
      "Ġknown": 1462,
      "ozsi": 1463,
      ".]": 1464,
      "IN": 1465,
      "dden": 1466,
      "par": 1467,
      "rum": 1468,
      "Ġhum": 1469,
      "arm": 1470,
      "Ġmom": 1471,
      "Ġtoward": 1472,
      "Ġstre": 1473,
      "Ġsudden": 1474,
      "Ġshort": 1475,
      "Ġdifferent": 1476,
      "Ġclear": 1477,
      "Ġdirect": 1478,
      "IS": 1479,
      "lings": 1480,
      "sh": 1481,
      "Ġast": 1482,
      "Ġsix": 1483,
      "Ġfight": 1484,
      "Ġfive": 1485,
      "stem": 1486,
      "Ġgu": 1487,
      "ety": 1488,
      "Ġnothing": 1489,
      "Ġvo": 1490,
      "Ġvisit": 1491,
      "Ġincluding": 1492,
      "Ġdescrib": 1493,
      "But": 1494,
      "oint": 1495,
      "Ġtake": 1496,
      "Ġcare": 1497,
      "Ġheart": 1498,
      "rael": 1499,
      "ility": 1500,
      "Ġnecess": 1501,
      "Ġwords": 1502,
      "olog": 1503,
      "Ġwhole": 1504,
      "Ġappro": 1505,
      "Ġtrans": 1506,
      "Ġobserv": 1507,
      "formation": 1508,
      "Ġkeep": 1509,
      "Ġgiven": 1510,
      "Ġmiddlings": 1511,
      "Ġuntil": 1512,
      "AP": 1513,
      "che": 1514,
      "oke": 1515,
      "pic": 1516,
      "attle": 1517,
      "Ġfire": 1518,
      "Ġmer": 1519,
      "Ġpres": 1520,
      "Ġthir": 1521,
      "Ġloc": 1522,
      "otion": 1523,
      "Ġstate": 1524,
      "ters": 1525,
      "emark": 1526,
      "Ġaround": 1527,
      "Ġdoor": 1528,
      "anger": 1529,
      "Ġamong": 1530,
      "Ġposition": 1531,
      "Ġfollowing": 1532,
      "Ġreceived": 1533,
      "Ġlaws": 1534,
      "Ġgroup": 1535,
      "ches": 1536,
      "Ġopp": 1537,
      "ison": 1538,
      "enry": 1539,
      "Ġcond": 1540,
      "Ġcost": 1541,
      "Ġgas": 1542,
      "Ġneed": 1543,
      "Ġplac": 1544,
      "Ġperm": 1545,
      "Ġseveral": 1546,
      "aul": 1547,
      "haps": 1548,
      "of": 1549,
      "son": 1550,
      "Ġwr": 1551,
      "Ġwind": 1552,
      "Ġwinter": 1553,
      "Ġpost": 1554,
      "empt": 1555,
      "Ġ13": 1556,
      "akes": 1557,
      "Ġdoes": 1558,
      "Ġtelescope": 1559,
      "Ġsystem": 1560,
      "gth": 1561,
      "iers": 1562,
      "Ġsight": 1563,
      "ised": 1564,
      "Ġfaint": 1565,
      "Ġhast": 1566,
      "Ġeas": 1567,
      "ident": 1568,
      "ĠHenry": 1569,
      "Ġhapp": 1570,
      "ĠThey": 1571,
      "ĠGreta": 1572,
      "ĠMajor": 1573,
      "Ġ12": 1574,
      "Ġalong": 1575,
      "Ġsaw": 1576,
      "Ġbecause": 1577,
      "ĠEnglish": 1578,
      "ustration": 1579,
      "ned": 1580,
      "Ġmain": 1581,
      "Ġins": 1582,
      "Ġdel": 1583,
      "ady": 1584,
      "tern": 1585,
      "illed": 1586,
      "Ġnext": 1587,
      "Ġexist": 1588,
      "Ġtwenty": 1589,
      "pha": 1590,
      "ready": 1591,
      "Ġcirc": 1592,
      "!'": 1593,
      "yll": 1594,
      "Ġfur": 1595,
      "Ġmatter": 1596,
      "Ġgir": 1597,
      "rid": 1598,
      "used": 1599,
      "Ġrun": 1600,
      "Ġchild": 1601,
      "Ġmeth": 1602,
      "Ġsomething": 1603,
      "Ġtrademark": 1604,
      "])": 1605,
      "land": 1606,
      "Ġwonder": 1607,
      "Ġbu": 1608,
      "Ġcoll": 1609,
      "Ġrel": 1610,
      "Ġreason": 1611,
      "ĠPaul": 1612,
      "ĠAt": 1613,
      "ĠHis": 1614,
      "ump": 1615,
      "uster": 1616,
      "ĠFort": 1617,
      "Ġperform": 1618,
      "selves": 1619,
      "Ġimport": 1620,
      "Ġbelow": 1621,
      "ĠIsrael": 1622,
      "Ġmoment": 1623,
      "fully": 1624,
      "ys": 1625,
      "Ġwall": 1626,
      "Ġwant": 1627,
      "Ġfine": 1628,
      "Ġthings": 1629,
      "omp": 1630,
      "Ġstood": 1631,
      "ides": 1632,
      "ames": 1633,
      "ĠOn": 1634,
      "Ġcomple": 1635,
      "Ġgoing": 1636,
      "ibyll": 1637,
      "?)": 1638,
      "fic": 1639,
      "gr": 1640,
      "what": 1641,
      "Ġwom": 1642,
      "Ġwrit": 1643,
      "Ġsing": 1644,
      "orm": 1645,
      "Ġpat": 1646,
      "owed": 1647,
      "Ġord": 1648,
      "Ġsucc": 1649,
      "ĠCol": 1650,
      "ĠCap": 1651,
      "Ġexh": 1652,
      "Ġalready": 1653,
      "aks": 1654,
      "Ġremain": 1655,
      "Ġcontin": 1656,
      "Ġbegin": 1657,
      "Ġpurp": 1658,
      "Ġdoubt": 1659,
      "Ġmiles": 1660,
      "Ġiron": 1661,
      "Ġconsider": 1662,
      "eared": 1663,
      "gutenberg": 1664,
      "ior": 1665,
      "ued": 1666,
      "ination": 1667,
      "Ġsince": 1668,
      "ats": 1669,
      "Ġmach": 1670,
      "Ġland": 1671,
      "rim": 1672,
      "aying": 1673,
      "Ġprop": 1674,
      "Ġking": 1675,
      "Ġenough": 1676,
      "orning": 1677,
      "Ġbegan": 1678,
      "Ġopen": 1679,
      "This": 1680,
      "Ġbeautif": 1681,
      "Ġarrang": 1682,
      "Ill": 1683,
      "TER": 1684,
      "ale": 1685,
      "bs": 1686,
      "eb": 1687,
      "inary": 1688,
      "ank": 1689,
      "ici": 1690,
      "Ġsuper": 1691,
      "Ġexpl": 1692,
      "oles": 1693,
      "ĠWhat": 1694,
      "orts": 1695,
      "ĠRozsi": 1696,
      "Ġpoor": 1697,
      "soci": 1698,
      "Ġslow": 1699,
      "ĠChristian": 1700,
      "Ġstrong": 1701,
      "Illustration": 1702,
      "ew": 1703,
      "ged": 1704,
      "iri": 1705,
      "mb": 1706,
      "yl": 1707,
      "Ġori": 1708,
      "Ġpict": 1709,
      "Ġlim": 1710,
      "Ġlear": 1711,
      "Ġrepl": 1712,
      "alt": 1713,
      "though": 1714,
      "Ġ11": 1715,
      "Ġprocess": 1716,
      "Ġdeep": 1717,
      "Ġkind": 1718,
      "Ġperhaps": 1719,
      "Ġadm": 1720,
      "ĠYork": 1721,
      "ize": 1722,
      "ube": 1723,
      "Ġblood": 1724,
      "ixed": 1725,
      "Ġeffect": 1726,
      "CT": 1727,
      "ED": 1728,
      "oon": 1729,
      "iness": 1730,
      "ery": 1731,
      "Ġcal": 1732,
      "Ġtoget": 1733,
      "Ġlost": 1734,
      "ution": 1735,
      "Ġstri": 1736,
      "Ġwhite": 1737,
      "Ġval": 1738,
      "Ġproper": 1739,
      "Ġdev": 1740,
      "ĠLicense": 1741,
      "ivid": 1742,
      "ĠOr": 1743,
      "ressed": 1744,
      "Ġseems": 1745,
      "Ġconstellations": 1746,
      "Ġmethod": 1747,
      "Ġtogether": 1748,
      "]),": 1749,
      "lor": 1750,
      "ob": 1751,
      "sion": 1752,
      "Ġthee": 1753,
      "ences": 1754,
      "Ġce": 1755,
      "Ġcut": 1756,
      "Ġcur": 1757,
      "Ġeither": 1758,
      "riv": 1759,
      "ript": 1760,
      "ets": 1761,
      "ified": 1762,
      "ilt": 1763,
      "astings": 1764,
      "thern": 1765,
      "Ġtrue": 1766,
      "claim": 1767,
      "Ġpartic": 1768,
      "Ġinstrum": 1769,
      "Ġbrought": 1770,
      "Ġnebula": 1771,
      "Ġpleas": 1772,
      "Ġsuccess": 1773,
      "Ġorigin": 1774,
      "RE": 1775,
      "ec": 1776,
      "Ġtem": 1777,
      "Ġsign": 1778,
      "Ġbody": 1779,
      "Ġfif": 1780,
      "Ġfav": 1781,
      "oun": 1782,
      "Ġmorning": 1783,
      "Ġpap": 1784,
      "Ġline": 1785,
      "Ġlater": 1786,
      "Ġredu": 1787,
      "Ġstru": 1788,
      "ĠShe": 1789,
      "ĠCl": 1790,
      "Ġmove": 1791,
      "Ġdispl": 1792,
      "Ġfeel": 1793,
      "Ġ20": 1794,
      "Ġpassed": 1795,
      "Ġbelie": 1796,
      "Ġacross": 1797,
      "Ġbehind": 1798,
      "Ġmonth": 1799,
      "Ġsuddenly": 1800,
      "irius": 1801,
      "ex": 1802,
      "Ġtail": 1803,
      "Ġwww": 1804,
      "Ġswe": 1805,
      "ically": 1806,
      "Ġheard": 1807,
      "Ġworth": 1808,
      "ĠWhen": 1809,
      "une": 1810,
      "Ġris": 1811,
      "Ġfee": 1812,
      "Ġroll": 1813,
      "Ġquestion": 1814,
      "Ġaccount": 1815,
      "Ġgold": 1816,
      "Ġformer": 1817,
      "Ġvoice": 1818,
      "ĠColon": 1819,
      "gan": 1820,
      "my": 1821,
      "Ġtro": 1822,
      "ites": 1823,
      "omm": 1824,
      "imes": 1825,
      "ĠMar": 1826,
      "Ġimag": 1827,
      "range": 1828,
      "Ġkept": 1829,
      "Ġprobably": 1830,
      "ee": 1831,
      "face": 1832,
      "Ġtell": 1833,
      "Ġbra": 1834,
      "Ġmaking": 1835,
      "Ġdri": 1836,
      "Ġev": 1837,
      "ĠSibyll": 1838,
      "ĠSirius": 1839,
      "ounded": 1840,
      "Ġalone": 1841,
      "Ġcomply": 1842,
      "Ġusing": 1843,
      "Ġpossible": 1844,
      "Ġrespect": 1845,
      "urious": 1846,
      "Ġoccas": 1847,
      "Ġbrilli": 1848,
      "Ġfurther": 1849,
      "Swithin": 1850,
      "cing": 1851,
      "eed": 1852,
      "iod": 1853,
      "ining": 1854,
      "Ġbattle": 1855,
      "Ġdest": 1856,
      "Ġnature": 1857,
      "Ġel": 1858,
      "Ġgent": 1859,
      "Ġstud": 1860,
      "Ġforce": 1861,
      "thing": 1862,
      "tholog": 1863,
      "Ġwheat": 1864,
      "aked": 1865,
      "Ġlead": 1866,
      "Ġlooking": 1867,
      "Ġindic": 1868,
      "Ġcenter": 1869,
      "Ġcolor": 1870,
      "ĠConn": 1871,
      "Ġpaid": 1872,
      "Ġmarked": 1873,
      "Ġfigure": 1874,
      "Ġbeautiful": 1875,
      "Ġparticular": 1876,
      "OU": 1877,
      "br": 1878,
      "Ġoften": 1879,
      "Ġdone": 1880,
      "Ġreached": 1881,
      "Ġsum": 1882,
      "Ġsepar": 1883,
      "ember": 1884,
      "pped": 1885,
      "ĠWith": 1886,
      "There": 1887,
      "Ġthemselves": 1888,
      "Ġtruth": 1889,
      "acter": 1890,
      "Ġindivid": 1891,
      "Ġresult": 1892,
      "Ġregard": 1893,
      "Ġvisible": 1894,
      "Ġrequire": 1895,
      "peci": 1896,
      "Ġsoldiers": 1897,
      "Ġpurpose": 1898,
      "sociated": 1899,
      "iar": 1900,
      "ium": 1901,
      "to": 1902,
      "wh": 1903,
      "Ġte": 1904,
      "Ġaw": 1905,
      "Ġcre": 1906,
      "Ġpain": 1907,
      "Ġstrange": 1908,
      "vern": 1909,
      "ĠPle": 1910,
      "Ġconn": 1911,
      "Ġvari": 1912,
      "Ġdeath": 1913,
      "Ġrather": 1914,
      "ants": 1915,
      "Ġintell": 1916,
      "Ġmeas": 1917,
      "Ġperiod": 1918,
      "cience": 1919,
      "Ġquite": 1920,
      "ronom": 1921,
      "Ġaccord": 1922,
      "ĠWarner": 1923,
      "Ġdescribed": 1924,
      "Ġnecessary": 1925,
      "Ġtroops": 1926,
      "Ġgentle": 1927,
      "LA": 1928,
      "RO": 1929,
      "work": 1930,
      "Ġtax": 1931,
      "atus": 1932,
      "Ġbar": 1933,
      "Ġfut": 1934,
      "Ġmus": 1935,
      "Ġdro": 1936,
      "Ġdiam": 1937,
      "Ġgeneral": 1938,
      "Ġreel": 1939,
      "aled": 1940,
      "sequ": 1941,
      "ĠAND": 1942,
      "ĠHastings": 1943,
      "Ġneigh": 1944,
      "Ġsoft": 1945,
      "Ġchange": 1946,
      "ĠProv": 1947,
      "Ġcannot": 1948,
      "Ġrose": 1949,
      "Ġcluster": 1950,
      "aving": 1951,
      "Ġattention": 1952,
      "Ġelectric": 1953,
      "Ġaccept": 1954,
      "Ġcharge": 1955,
      "Ġprovide": 1956,
      "Ġnorth": 1957,
      "Ġdiscovered": 1958,
      "Ġanswered": 1959,
      "Ġindividual": 1960,
      "Ġneighb": 1961,
      "pr": 1962,
      "pid": 1963,
      "Ġ|": 1964,
      "Ġes": 1965,
      "itu": 1966,
      "Ġbus": 1967,
      "Ġcause": 1968,
      "Ġhig": 1969,
      "Ġpub": 1970,
      "Ġpuri": 1971,
      "ased": 1972,
      "Ġeight": 1973,
      "ott": 1974,
      "ĠAn": 1975,
      "ĠHerr": 1976,
      "Ġorgan": 1977,
      "ĠBy": 1978,
      "ĠWh": 1979,
      "Ġdec": 1980,
      "ĠNor": 1981,
      "rying": 1982,
      "ploy": 1983,
      "Ġlips": 1984,
      "Ġquick": 1985,
      "Ġsurface": 1986,
      "Ġdiffic": 1987,
      "Ġcover": 1988,
      "Ġmilit": 1989,
      "ĠSea": 1990,
      "EM": 1991,
      "IL": 1992,
      "ky": 1993,
      "oh": 1994,
      "uous": 1995,
      "Ġesc": 1996,
      "Ġwal": 1997,
      "ism": 1998,
      "Ġfac": 1999,
      "Ġca": 2000,
      "Ġcr": 2001,
      "aring": 2002,
      "Ġmed": 2003,
      "any": 2004,
      "Ġthing": 2005,
      "Ġlo": 2006,
      "Ġnaked": 2007,
      "ster": 2008,
      "stand": 2009,
      "Ġitself": 2010,
      "that": 2011,
      "Ġexcept": 2012,
      "Ġagree": 2013,
      "Ġleast": 2014,
      "Ġothers": 2015,
      "Ġflo": 2016,
      "Ġemploy": 2017,
      "Ġappearance": 2018,
      "Ġrefund": 2019,
      "Ġincre": 2020,
      "Ġletter": 2021,
      "ĠEngland": 2022,
      "Ġfoot": 2023,
      "Ġengine": 2024,
      "UT": 2025,
      "cury": 2026,
      "ta": 2027,
      "ts": 2028,
      "vol": 2029,
      "ĠX": 2030,
      "Ġten": 2031,
      "Ġtal": 2032,
      "Ġfelt": 2033,
      "Ġpump": 2034,
      "Ġhel": 2035,
      "iment": 2036,
      "amed": 2037,
      "Ġasked": 2038,
      "Ġassociated": 2039,
      "ĠCan": 2040,
      "acu": 2041,
      "Ġwhether": 2042,
      "ĠFor": 2043,
      "iving": 2044,
      "Ġcommon": 2045,
      "Ġpret": 2046,
      "Ġfollowed": 2047,
      "Ġarmy": 2048,
      "Ġdouble": 2049,
      "Ġmodel": 2050,
      "Ġsouth": 2051,
      "Ġminutes": 2052,
      "oleske": 2053,
      "ĠOrion": 2054,
      "ription": 2055,
      "Ġoccasion": 2056,
      "And": 2057,
      "If": 2058,
      "Pro": 2059,
      "Xiv": 2060,
      "iades": 2061,
      "ug": 2062,
      "Ġ0": 2063,
      "Ġtable": 2064,
      "inct": 2065,
      "itation": 2066,
      "Ġboy": 2067,
      "Ġhur": 2068,
      "Ġmist": 2069,
      "Ġlay": 2070,
      "Ġgone": 2071,
      "aded": 2072,
      "Ġsto": 2073,
      "eter": 2074,
      "ĠBoleske": 2075,
      "Ġchief": 2076,
      "Ġdise": 2077,
      "itten": 2078,
      "cks": 2079,
      "Ġground": 2080,
      "ogn": 2081,
      "teen": 2082,
      "Ġcharacter": 2083,
      "Ġpurs": 2084,
      "Ġserv": 2085,
      "Ġsatell": 2086,
      "ĠeBooks": 2087,
      "ĠIndians": 2088,
      "Ġobservations": 2089,
      "Ġlocated": 2090,
      "Ġplaced": 2091,
      "Ġpurif": 2092,
      "TH": 2093,
      "_,": 2094,
      "aust": 2095,
      "ek": 2096,
      "ires": 2097,
      "Ġter": 2098,
      "Ġap": 2099,
      "Ġable": 2100,
      "Ġbir": 2101,
      "Ġfall": 2102,
      "Ġhon": 2103,
      "oud": 2104,
      "Ġpress": 2105,
      "lend": 2106,
      "eth": 2107,
      "ichard": 2108,
      "unity": 2109,
      "Ġspring": 2110,
      "ives": 2111,
      "Ġdog": 2112,
      "Ġdisc": 2113,
      "Ġknew": 2114,
      "Ġgreater": 2115,
      "airs": 2116,
      "Ġprinci": 2117,
      "Ġsupport": 2118,
      "Ġcommander": 2119,
      "medi": 2120,
      "amma": 2121,
      "Ġwoman": 2122,
      "Ġfuture": 2123,
      "Ġespeci": 2124,
      "SE": 2125,
      "awn": 2126,
      "fe": 2127,
      "mings": 2128,
      "sp": 2129,
      "yond": 2130,
      "Ġest": 2131,
      "ering": 2132,
      "ones": 2133,
      "ator": 2134,
      "Ġbed": 2135,
      "Ġfair": 2136,
      "Ġmur": 2137,
      "Ġmere": 2138,
      "ash": 2139,
      "Ġlow": 2140,
      "Ġbeyond": 2141,
      "Ġgre": 2142,
      "ĠTre": 2143,
      "ams": 2144,
      "ĠHill": 2145,
      "Ġsugg": 2146,
      "ool": 2147,
      "ushed": 2148,
      "Ġvar": 2149,
      "ape": 2150,
      "unte": 2151,
      "arent": 2152,
      "eps": 2153,
      "Ġbecame": 2154,
      "Ġslight": 2155,
      "Ġsteam": 2156,
      "aughter": 2157,
      "Ġhours": 2158,
      "Ġremarkable": 2159,
      "Ġimportant": 2160,
      "Ġinstrument": 2161,
      "Ġbrilliant": 2162,
      "ĠPleiades": 2163,
      "ĠProvinci": 2164,
      "Ah": 2165,
      "IC": 2166,
      "TR": 2167,
      "We": 2168,
      "de": 2169,
      "hem": 2170,
      "Ġcase": 2171,
      "Ġmut": 2172,
      "Ġpast": 2173,
      "Ġdiv": 2174,
      "Ġduring": 2175,
      "Ġlen": 2176,
      "Ġlove": 2177,
      "Ġet": 2178,
      "Ġele": 2179,
      "Ġeast": 2180,
      "Ġhero": 2181,
      "Ġreve": 2182,
      "amb": 2183,
      "vers": 2184,
      "Ġanim": 2185,
      "ĠSo": 2186,
      "ilar": 2187,
      "emmings": 2188,
      "Ġexc": 2189,
      "ersche": 2190,
      "Ġdeg": 2191,
      "Ġalthough": 2192,
      "Ġmean": 2193,
      "Ġperce": 2194,
      "Ġimmedi": 2195,
      "Ġsomewhat": 2196,
      "Ġgoes": 2197,
      "Ġamount": 2198,
      "Ġbecome": 2199,
      "Ġretreat": 2200,
      "Ġexpress": 2201,
      "Ġobjects": 2202,
      "Ġcapt": 2203,
      "Ġmagnitude": 2204,
      "Ġhuman": 2205,
      "Ġastronom": 2206,
      "Ġpermission": 2207,
      "Ġslowly": 2208,
      "ĠBoleskey": 2209,
      "Ġsatellites": 2210,
      "Ġespecially": 2211,
      "erschel": 2212,
      "aid": 2213,
      "ius": 2214,
      "Ġz": 2215,
      "Ġtri": 2216,
      "Ġwood": 2217,
      "Ġsir": 2218,
      "eda": 2219,
      "ency": 2220,
      "Ġcra": 2221,
      "Ġmotion": 2222,
      "Ġdr": 2223,
      "Ġdem": 2224,
      "Ġdanger": 2225,
      "Ġlady": 2226,
      "icut": 2227,
      "Ġreal": 2228,
      "Ġrese": 2229,
      "Ġhist": 2230,
      "...": 2231,
      "ecticut": 2232,
      "Ġ19": 2233,
      "ĠLord": 2234,
      "Ġchang": 2235,
      "Ġmeet": 2236,
      "itting": 2237,
      "inder": 2238,
      "Ġcompar": 2239,
      "Ġappeared": 2240,
      "Ġgrad": 2241,
      "ĠUran": 2242,
      "Ġprev": 2243,
      "Ġparts": 2244,
      "Ġevening": 2245,
      "Ġdistributing": 2246,
      "Ġrecogn": 2247,
      "Ġactive": 2248,
      "ENT": 2249,
      "Ġfinally": 2250,
      "Ġreturned": 2251,
      "Ġfellow": 2252,
      "Ġprotected": 2253,
      "Ġapproach": 2254,
      "thology": 2255,
      "St": 2256,
      "Wh": 2257,
      "by": 2258,
      "day": 2259,
      "een": 2260,
      "fact": 2261,
      "io": 2262,
      "ken": 2263,
      "wing": 2264,
      "Ġide": 2265,
      "Ġbran": 2266,
      "Ġcurious": 2267,
      "Ġmone": 2268,
      "Ġmakes": 2269,
      "anced": 2270,
      "Ġlun": 2271,
      "omen": 2272,
      "ries": 2273,
      "iding": 2274,
      "Ġconcer": 2275,
      "ush": 2276,
      "Ġvacu": 2277,
      "opes": 2278,
      "Ġspace": 2279,
      "ortion": 2280,
      "Ġroy": 2281,
      "Ġafterward": 2282,
      "Ġcopies": 2283,
      "Ġattract": 2284,
      "Ġindeed": 2285,
      "Ġlarger": 2286,
      "Ġdiscovery": 2287,
      "Ġfamily": 2288,
      "ĠAmerican": 2289,
      "Ġwonderful": 2290,
      "Harz": 2291,
      "light": 2292,
      "por": 2293,
      "side": 2294,
      "uff": 2295,
      "Ġtou": 2296,
      "Ġsle": 2297,
      "Ġsound": 2298,
      "Ġsitu": 2299,
      "Ġcamp": 2300,
      "arian": 2301,
      "ingly": 2302,
      "essel": 2303,
      "Ġpot": 2304,
      "Ġpract": 2305,
      "Ġgrow": 2306,
      "ĠPh": 2307,
      "ĠAll": 2308,
      "ĠSer": 2309,
      "ĠHow": 2310,
      "Ġhair": 2311,
      "iled": 2312,
      "romeda": 2313,
      "que": 2314,
      "unk": 2315,
      "Ġsplend": 2316,
      "ĠOR": 2317,
      "cial": 2318,
      "Ġearly": 2319,
      "Ġpecul": 2320,
      "Ġrapid": 2321,
      "Ġspec": 2322,
      "Ġappears": 2323,
      "Ġpowerful": 2324,
      "Ġmountains": 2325,
      "Ġsuffici": 2326,
      "Ġmercury": 2327,
      "Ġwritten": 2328,
      "Ġwriting": 2329,
      "Ġarrangement": 2330,
      "ĠMarg": 2331,
      "ĠConnecticut": 2332,
      "Ġpublic": 2333,
      "Ġpeculiar": 2334,
      "__": 2335,
      "fect": 2336,
      "sc": 2337,
      "Ġtaking": 2338,
      "Ġage": 2339,
      "Ġwest": 2340,
      "Ġwide": 2341,
      "Ġwatch": 2342,
      "Ġson": 2343,
      "Ġsch": 2344,
      "Ġburn": 2345,
      "Ġcyl": 2346,
      "outh": 2347,
      "oured": 2348,
      "Ġheld": 2349,
      "Ġstory": 2350,
      "urus": 2351,
      "illiam": 2352,
      "ĠHer": 2353,
      "ĠHerschel": 2354,
      "ĠThen": 2355,
      "Ġshown": 2356,
      "oss": 2357,
      "cient": 2358,
      "Ġleg": 2359,
      "ront": 2360,
      "Ġremo": 2361,
      "Ġblack": 2362,
      "Ġdefect": 2363,
      "APTER": 2364,
      "Ġpicture": 2365,
      "Ġfavor": 2366,
      "Ġelectricity": 2367,
      "Ġmedium": 2368,
      "Ġhelp": 2369,
      "Ġetc": 2370,
      ",'": 2371,
      "Ch": 2372,
      "bit": 2373,
      "eg": 2374,
      "ience": 2375,
      "now": 2376,
      "ule": 2377,
      "wo": 2378,
      "Ġtill": 2379,
      "Ġav": 2380,
      "erse": 2381,
      "Ġwife": 2382,
      "atur": 2383,
      "iting": 2384,
      "Ġfurn": 2385,
      "Ġcast": 2386,
      "Ġmem": 2387,
      "Ġpow": 2388,
      "Ġder": 2389,
      "Ġlord": 2390,
      "ute": 2391,
      "Ġheight": 2392,
      "rived": 2393,
      "ained": 2394,
      "ĠHung": 2395,
      "Ġnotice": 2396,
      "Ġconce": 2397,
      "ĠWilliam": 2398,
      "Ġsav": 2399,
      "Ġdisapp": 2400,
      "ĠRichard": 2401,
      "ĠYOU": 2402,
      "Ġsurpr": 2403,
      "henomen": 2404,
      "Ġdistribution": 2405,
      "Ġsubject": 2406,
      "Ġaddition": 2407,
      "Ġbreak": 2408,
      "Ġequal": 2409,
      "Ġobtained": 2410,
      "Ġanswer": 2411,
      "Ġproduced": 2412,
      "Ġvolunte": 2413,
      "Ġeasily": 2414,
      "Ġexhaust": 2415,
      "Ġmonths": 2416,
      "ĠColonel": 2417,
      "ohn": 2418,
      "Ġlength": 2419,
      "ĠUranus": 2420,
      "Ġmoney": 2421,
      "'ve": 2422,
      "but": 2423,
      "ead": 2424,
      "go": 2425,
      "line": 2426,
      "you": 2427,
      "ata": 2428,
      "Ġcross": 2429,
      "Ġpay": 2430,
      "Ġinvent": 2431,
      "Ġdu": 2432,
      "Ġlab": 2433,
      "rodu": 2434,
      "Ġgall": 2435,
      "alty": 2436,
      "Ġvict": 2437,
      "Ġ15": 2438,
      "osing": 2439,
      "ĠOne": 2440,
      "Ġcomput": 2441,
      "Ġenc": 2442,
      "ffry": 2443,
      "Ġroad": 2444,
      "Ġsmile": 2445,
      "ĠAndromeda": 2446,
      "Ġbrother": 2447,
      "Ġoccur": 2448,
      "Ġordered": 2449,
      "Ġsometimes": 2450,
      "Ġforest": 2451,
      "CHAPTER": 2452,
      "ING": 2453,
      "Ġmachine": 2454,
      "Ġpaper": 2455,
      "ĠTreffry": 2456,
      "Ġvarious": 2457,
      "ĠHungarian": 2458,
      "'m": 2459,
      "On": 2460,
      "bed": 2461,
      "men": 2462,
      "rate": 2463,
      "Ġty": 2464,
      "Ġtube": 2465,
      "ins": 2466,
      "Ġwid": 2467,
      "Ġsense": 2468,
      "Ġbes": 2469,
      "Ġbur": 2470,
      "Ġfixed": 2471,
      "Ġhill": 2472,
      "ingu": 2473,
      "Ġpun": 2474,
      "Ġinformation": 2475,
      "Ġdim": 2476,
      "ices": 2477,
      "lebr": 2478,
      "Ġheat": 2479,
      "ayed": 2480,
      "Ġang": 2481,
      "ifying": 2482,
      "ĠMont": 2483,
      "ested": 2484,
      "Ġword": 2485,
      "umin": 2486,
      "ively": 2487,
      "ĠarXiv": 2488,
      "ĠEx": 2489,
      "Ġunless": 2490,
      "Ġquar": 2491,
      "Ġsmo": 2492,
      "ograph": 2493,
      "ruct": 2494,
      "iously": 2495,
      "Ġprison": 2496,
      "Ġmilling": 2497,
      "Ġshows": 2498,
      "Ġdeterm": 2499,
      "Ġsimilar": 2500,
      "Ġfamous": 2501,
      "Ġpresence": 2502,
      "Ġcomplete": 2503,
      "Ġcalcul": 2504,
      "Ġcelebr": 2505,
      "Ġbelieve": 2506,
      "Ġpretty": 2507,
      "Project": 2508,
      "Ġcylinder": 2509,
      "AL": 2510,
      "IG": 2511,
      "No": 2512,
      "beta": 2513,
      "cceed": 2514,
      "gy": 2515,
      "lu": 2516,
      "non": 2517,
      "ues": 2518,
      "Ġauth": 2519,
      "ert": 2520,
      "Ġwild": 2521,
      "rem": 2522,
      "Ġfear": 2523,
      "Ġcreat": 2524,
      "oura": 2525,
      "Ġphenomen": 2526,
      "Ġtold": 2527,
      "Ġlie": 2528,
      "rote": 2529,
      "let": 2530,
      "Ġgaz": 2531,
      "Ġreach": 2532,
      "Ġstra": 2533,
      "Ġstren": 2534,
      "Ġwhy": 2535,
      "riage": 2536,
      "Ġsucceed": 2537,
      "Ġneg": 2538,
      "ists": 2539,
      "Ġprof": 2540,
      "ume": 2541,
      "osp": 2542,
      "ĠNO": 2543,
      "ĠNay": 2544,
      "Ġmanner": 2545,
      "Ġabs": 2546,
      "Ġimm": 2547,
      "auge": 2548,
      "Ġ22": 2549,
      "Ġcontr": 2550,
      "ĠJohn": 2551,
      "Ġregion": 2552,
      "Ġreader": 2553,
      "Ġspeak": 2554,
      "Ġsupposed": 2555,
      "Ġarms": 2556,
      "Ġreflect": 2557,
      "velop": 2558,
      "Ġriver": 2559,
      "TION": 2560,
      "Ġofficer": 2561,
      "Ġtemper": 2562,
      "mythology": 2563,
      "Ġdisease": 2564,
      "Ġapart": 2565,
      "Ġlunar": 2566,
      "AM": 2567,
      "body": 2568,
      "eor": 2569,
      "lain": 2570,
      "rs": 2571,
      "uct": 2572,
      "Ġver": 2573,
      "Ġident": 2574,
      "Ġaid": 2575,
      "Ġsqu": 2576,
      "nding": 2577,
      "ening": 2578,
      "Ġborn": 2579,
      "Ġfr": 2580,
      "Ġcorn": 2581,
      "Ġmm": 2582,
      "ann": 2583,
      "Ġdaughter": 2584,
      "Ġlower": 2585,
      "Ġgot": 2586,
      "Ġrender": 2587,
      "Ġrefer": 2588,
      "Ġstates": 2589,
      "Ġann": 2590,
      "illa": 2591,
      "ĠHemmings": 2592,
      "Ġyouth": 2593,
      "ĠThese": 2594,
      "usion": 2595,
      "istribut": 2596,
      "ards": 2597,
      "aped": 2598,
      "Ġkilled": 2599,
      "aged": 2600,
      "ĠOld": 2601,
      "Ġprep": 2602,
      "aves": 2603,
      "inks": 2604,
      "Ġbelong": 2605,
      "Ġprovided": 2606,
      "Ġcarried": 2607,
      "Ġrequired": 2608,
      "Ġsilence": 2609,
      "Ġhorse": 2610,
      "Ġhoriz": 2611,
      "Ġminute": 2612,
      "Ġwindow": 2613,
      "Ġposted": 2614,
      "BER": 2615,
      "RAN": 2616,
      "ges": 2617,
      "ips": 2618,
      "Ġwish": 2619,
      "Ġwrote": 2620,
      "Ġsays": 2621,
      "Ġfront": 2622,
      "Ġcold": 2623,
      "Ġhost": 2624,
      "arp": 2625,
      "Ġmater": 2626,
      "Ġdut": 2627,
      "Ġdam": 2628,
      "ases": 2629,
      "Ġled": 2630,
      "Ġevent": 2631,
      "owing": 2632,
      "idence": 2633,
      "irt": 2634,
      "chan": 2635,
      "ĠSp": 2636,
      "ĠHud": 2637,
      "ilon": 2638,
      "pper": 2639,
      "ĠMaster": 2640,
      "resh": 2641,
      "ĠLake": 2642,
      "Ġspir": 2643,
      "Ġwebs": 2644,
      "Ġmechan": 2645,
      "Ġplain": 2646,
      "Ġunf": 2647,
      "Ġuniver": 2648,
      "ability": 2649,
      "Ġattack": 2650,
      "Ġattempt": 2651,
      "Ġobserved": 2652,
      "Ġbecom": 2653,
      "Ġsurr": 2654,
      "Ġsatis": 2655,
      "Ġcompanion": 2656,
      "Ġthird": 2657,
      "Ġreduction": 2658,
      "Ġrolls": 2659,
      "ĠProvincials": 2660,
      "Ġcelebrated": 2661,
      "ĠHudson": 2662,
      "Ġwebsite": 2663,
      "AT": 2664,
      "Al": 2665,
      "Scor": 2666,
      "hood": 2667,
      "ler": 2668,
      "mon": 2669,
      "ming": 2670,
      "rance": 2671,
      "uly": 2672,
      "Ġaction": 2673,
      "atched": 2674,
      "itable": 2675,
      "Ġbook": 2676,
      "Ġfought": 2677,
      "Ġmarch": 2678,
      "Ġpair": 2679,
      "Ġnames": 2680,
      "Ġheav": 2681,
      "Ġgauge": 2682,
      "Ġrevol": 2683,
      "ompl": 2684,
      "alth": 2685,
      "ime": 2686,
      "amber": 2687,
      "ify": 2688,
      "iling": 2689,
      "oose": 2690,
      "ĠGreat": 2691,
      "Ġvast": 2692,
      "Ġ14": 2693,
      "Ġdead": 2694,
      "ĠLy": 2695,
      "antly": 2696,
      "Ġapparent": 2697,
      "arelli": 2698,
      "clock": 2699,
      "Ġdistingu": 2700,
      "Ġforms": 2701,
      "Ġattend": 2702,
      "Ġreport": 2703,
      "ĠJune": 2704,
      "Ġ30": 2705,
      "Ġsecret": 2706,
      "Ġ50": 2707,
      "Ġreceive": 2708,
      "Ġoccup": 2709,
      "Ġphr": 2710,
      "Ġincluded": 2711,
      "Ġadvance": 2712,
      "Ġ187": 2713,
      "Ġrepresented": 2714,
      "Ġassist": 2715,
      "Ġfriends": 2716,
      "Ġcompany": 2717,
      "Ġdirectly": 2718,
      "Ġexistence": 2719,
      "Ġsingle": 2720,
      "Ġadmir": 2721,
      "Ġrequirements": 2722,
      "Ġneighbor": 2723,
      "Ġmuttered": 2724,
      "Ġhistory": 2725,
      "ĠNaylor": 2726,
      "'ll": 2727,
      ".'": 2728,
      "60": 2729,
      "88": 2730,
      "Ġve": 2731,
      "Ġtry": 2732,
      "head": 2733,
      "ision": 2734,
      "atures": 2735,
      "Ġbene": 2736,
      "Ġfail": 2737,
      "Ġcub": 2738,
      "Ġhy": 2739,
      "Ġmaster": 2740,
      "Ġpie": 2741,
      "Ġthick": 2742,
      "Ġnar": 2743,
      "Ġnatur": 2744,
      "alpha": 2745,
      "vey": 2746,
      "imum": 2747,
      "Ġforg": 2748,
      "ĠSir": 2749,
      "Ġsure": 2750,
      "Ġsea": 2751,
      "Ġseven": 2752,
      "Ġshad": 2753,
      "Ġcomb": 2754,
      "ĠMil": 2755,
      "ĠFOR": 2756,
      "ĠLI": 2757,
      "antic": 2758,
      "Ġspect": 2759,
      "Ġspoke": 2760,
      "--\"": 2761,
      "ĠDo": 2762,
      "Ġanyone": 2763,
      "Ġpreci": 2764,
      "ilyard": 2765,
      "Ġprince": 2766,
      "Ġready": 2767,
      "Ġextent": 2768,
      "Ġ177": 2769,
      "Ġsilver": 2770,
      "Ġphys": 2771,
      "Ġbreast": 2772,
      "liance": 2773,
      "Ġopport": 2774,
      "Ġgirl": 2775,
      "Ġidea": 2776,
      "AG": 2777,
      "CE": 2778,
      "lied": 2779,
      "ris": 2780,
      "Ġ/": 2781,
      "ĠZ": 2782,
      "Ġut": 2783,
      "reg": 2784,
      "Ġfre": 2785,
      "Ġcaught": 2786,
      "Ġpaint": 2787,
      "Ġdied": 2788,
      "roy": 2789,
      "Ġbear": 2790,
      "ĠIN": 2791,
      "ĠPRO": 2792,
      "ching": 2793,
      "Ġsul": 2794,
      "Ġvessel": 2795,
      "ĠMars": 2796,
      "olved": 2797,
      "acity": 2798,
      "ously": 2799,
      "ĠDe": 2800,
      "ends": 2801,
      "angu": 2802,
      "orses": 2803,
      "Ġpassing": 2804,
      "Ġsuns": 2805,
      "Ġreadily": 2806,
      "Ġacqu": 2807,
      "Ġdistribute": 2808,
      "Ġcourt": 2809,
      "Ġcheck": 2810,
      "Ġofficers": 2811,
      "ITY": 2812,
      "Ġfreely": 2813,
      "Ġstriking": 2814,
      "Ġrising": 2815,
      "Ġbrave": 2816,
      "Ġmilitary": 2817,
      "Ġstrength": 2818,
      "22": 2819,
      "AB": 2820,
      "AS": 2821,
      "She": 2822,
      "eated": 2823,
      "nown": 2824,
      "oard": 2825,
      "pond": 2826,
      "tic": 2827,
      "Ġtried": 2828,
      "ini": 2829,
      "Ġwounded": 2830,
      "atic": 2831,
      "Ġmass": 2832,
      "ories": 2833,
      "Ġpage": 2834,
      "Ġdate": 2835,
      "Ġlicense": 2836,
      "roo": 2837,
      "Ġhear": 2838,
      "Ġstatus": 2839,
      "iments": 2840,
      "ĠAN": 2841,
      "ĠAfter": 2842,
      "ĠST": 2843,
      "ĠSU": 2844,
      "Ġshot": 2845,
      "Ġsharp": 2846,
      "ĠMiss": 2847,
      "olf": 2848,
      "Ġstarted": 2849,
      "ĠWAR": 2850,
      "Ġdevelop": 2851,
      "unt": 2852,
      "Ġchamber": 2853,
      "ĠNot": 2854,
      "Ġcompliance": 2855,
      "Ġrow": 2856,
      "ĠIts": 2857,
      "Ġclot": 2858,
      "Ġaccomp": 2859,
      "Ġprevent": 2860,
      "Ġunderstand": 2861,
      "Ġscene": 2862,
      "sib": 2863,
      "Ġimpos": 2864,
      "Ġregular": 2865,
      "rows": 2866,
      "Ġemul": 2867,
      "Ġfarm": 2868,
      "Ġmills": 2869,
      "Ġmetal": 2870,
      "Ġdesign": 2871,
      "ipped": 2872,
      "Ġdetected": 2873,
      "Ġcarry": 2874,
      "Ġplanets": 2875,
      "Ġ175": 2876,
      "Ġtelescopes": 2877,
      "Ġdirection": 2878,
      "Ġrid": 2879,
      "Ġpale": 2880,
      "Ġsoldier": 2881,
      "Ġholder": 2882,
      "Ġgirls": 2883,
      "Ġbuilt": 2884,
      "Ġconsiderable": 2885,
      "Ġreplied": 2886,
      "Ġoriginal": 2887,
      "Ġaccepted": 2888,
      "Ġhigher": 2889,
      "Ġcovered": 2890,
      "Ġfloor": 2891,
      "awney": 2892,
      "Ġmurm": 2893,
      "Ġhorizon": 2894,
      "Ġmaterial": 2895,
      "As": 2896,
      "LE": 2897,
      "With": 2898,
      "Way": 2899,
      "When": 2900,
      "hab": 2901,
      "nal": 2902,
      "ored": 2903,
      "val": 2904,
      "Ġsize": 2905,
      "rent": 2906,
      "isc": 2907,
      "atine": 2908,
      "enfor": 2909,
      "Ġbrom": 2910,
      "Ġfle": 2911,
      "Ġfly": 2912,
      "Ġcity": 2913,
      "Ġcried": 2914,
      "Ġtown": 2915,
      "Ġdue": 2916,
      "Ġdrew": 2917,
      "Ġlate": 2918,
      "Ġloss": 2919,
      "Ġnine": 2920,
      "Ġgerm": 2921,
      "Ġreally": 2922,
      "ading": 2923,
      "cend": 2924,
      "Ġupper": 2925,
      "ĠHilyard": 2926,
      "Ġconv": 2927,
      "Ġshining": 2928,
      "Ġmoved": 2929,
      "Ġstarry": 2930,
      "Ġproved": 2931,
      "ustom": 2932,
      "Ġdecl": 2933,
      "ĠFrom": 2934,
      "ĠLe": 2935,
      "Ġcannon": 2936,
      "Ġleave": 2937,
      "Ġapplic": 2938,
      "Ġusual": 2939,
      "Ġdistant": 2940,
      "Ġdistinct": 2941,
      "Ġforming": 2942,
      "ĠInformation": 2943,
      "Ġshoulder": 2944,
      "Ġlonger": 2945,
      "ĠVir": 2946,
      "Ġproviding": 2947,
      "Ġdistributed": 2948,
      "Ġefforts": 2949,
      "ĠKing": 2950,
      "Ġopened": 2951,
      "Ġdescription": 2952,
      "Ġmountain": 2953,
      "Ġfighting": 2954,
      "Ġthirty": 2955,
      "lands": 2956,
      "Ġcontinued": 2957,
      "Ġfeeling": 2958,
      "Ġdifficult": 2959,
      "Ġvacuum": 2960,
      "Ġremoved": 2961,
      "Ġauthor": 2962,
      "ĠMilky": 2963,
      "Ġphysical": 2964,
      "Ġbromide": 2965,
      "That": 2966,
      "be": 2967,
      "bon": 2968,
      "iant": 2969,
      "mosp": 2970,
      "no": 2971,
      "ober": 2972,
      "ped": 2973,
      "pro": 2974,
      "ught": 2975,
      "wise": 2976,
      "where": 2977,
      "yte": 2978,
      "hest": 2979,
      "Ġach": 2980,
      "Ġsort": 2981,
      "ister": 2982,
      "eness": 2983,
      "Ġbad": 2984,
      "Ġball": 2985,
      "Ġfa": 2986,
      "arl": 2987,
      "ancing": 2988,
      "Ġdre": 2989,
      "Ġdom": 2990,
      "Ġwhis": 2991,
      "ammer": 2992,
      "ĠSh": 2993,
      "Ġsearch": 2994,
      "Ġconcl": 2995,
      "ĠGeor": 2996,
      "Ġcoming": 2997,
      "elatine": 2998,
      "ĠMin": 2999,
      "Ġexact": 3000,
      "Ġstart": 3001,
      "umb": 3002,
      "Ġallowed": 3003,
      "Ġdeal": 3004,
      "ĠFors": 3005,
      "antage": 3006,
      "Ġworking": 3007,
      "igence": 3008,
      "ĠOf": 3009,
      "Ġago": 3010,
      "Ġfees": 3011,
      "Ġfeatures": 3012,
      "Ġunc": 3013,
      "aret": 3014,
      "Ġglim": 3015,
      "Ġremember": 3016,
      "ails": 3017,
      "ledge": 3018,
      "Ġentire": 3019,
      "Ġemb": 3020,
      "enses": 3021,
      "Ġrecord": 3022,
      "Ġeverything": 3023,
      "Ġbroad": 3024,
      "Ġextrem": 3025,
      "Ġsilent": 3026,
      "onderog": 3027,
      "Ġfoe": 3028,
      "Ġdepart": 3029,
      "Ġbehold": 3030,
      "like": 3031,
      "Ġprotect": 3032,
      "Ġtrees": 3033,
      "ĠAmericans": 3034,
      "Ġedge": 3035,
      "Ġeasy": 3036,
      "Ġordinary": 3037,
      "Ġpleasure": 3038,
      "Ġresults": 3039,
      "Ġintellect": 3040,
      "Ġbusiness": 3041,
      "ĠNorth": 3042,
      "Ġemployed": 3043,
      "Ġcomparative": 3044,
      "Ġvolunteers": 3045,
      "luence": 3046,
      "Ġcontrast": 3047,
      "Ġphrase": 3048,
      "Ġcubic": 3049,
      "Ġimpossible": 3050,
      "ĠGeorge": 3051,
      "ĠForsyte": 3052,
      "My": 3053,
      "eks": 3054,
      "mber": 3055,
      "pit": 3056,
      "isp": 3057,
      "Ġfing": 3058,
      "Ġcrow": 3059,
      "Ġhorses": 3060,
      "arily": 3061,
      "Ġmine": 3062,
      "Ġmother": 3063,
      "Ġpen": 3064,
      "Ġinform": 3065,
      "anc": 3066,
      "Ġdiver": 3067,
      "Ġlist": 3068,
      "iconderog": 3069,
      "alm": 3070,
      "rible": 3071,
      "ĠTy": 3072,
      "ĠTiconderog": 3073,
      "Ġforward": 3074,
      "Ġatmosp": 3075,
      "Ġsel": 3076,
      "ils": 3077,
      "ilos": 3078,
      "ĠGo": 3079,
      "Ġmoder": 3080,
      "ĠBet": 3081,
      "ĠBost": 3082,
      "Ġproceed": 3083,
      "elled": 3084,
      "ellow": 3085,
      "umph": 3086,
      "Ġdear": 3087,
      "Ġarrived": 3088,
      "ĠDr": 3089,
      "Ġdisk": 3090,
      "Ġdisp": 3091,
      "Ġadvent": 3092,
      "odies": 3093,
      "Ġfirm": 3094,
      "Ġparty": 3095,
      "Ġblue": 3096,
      "rupt": 3097,
      "ruction": 3098,
      "attered": 3099,
      "ĠVen": 3100,
      "Ġexpect": 3101,
      "Ġprint": 3102,
      "Ġdesp": 3103,
      "Ġshowed": 3104,
      "Ġadded": 3105,
      "ĠScorp": 3106,
      "ĠMrs": 3107,
      "Ġcontaining": 3108,
      "Ġdrawn": 3109,
      "Ġhardly": 3110,
      "Ġexperiment": 3111,
      "picuous": 3112,
      "Ġcircum": 3113,
      "Ġwalls": 3114,
      "Ġsingular": 3115,
      "Ġreplace": 3116,
      "Ġdestroy": 3117,
      "Ġconnected": 3118,
      "Ġdiameter": 3119,
      "Ġstopped": 3120,
      "Ġavail": 3121,
      "erseus": 3122,
      "Ġcorner": 3123,
      "Scorrier": 3124,
      "Ġheavy": 3125,
      "Ġaccompan": 3126,
      "enforce": 3127,
      "ĠTiconderoga": 3128,
      "ilosop": 3129,
      "ĠBoston": 3130,
      "His": 3131,
      "Section": 3132,
      "VE": 3133,
      "bers": 3134,
      "dra": 3135,
      "oom": 3136,
      "oot": 3137,
      "west": 3138,
      "erous": 3139,
      "Ġwon": 3140,
      "Ġsn": 3141,
      "Ġsor": 3142,
      "itter": 3143,
      "Ġbi": 3144,
      "Ġbound": 3145,
      "Ġbodies": 3146,
      "Ġmax": 3147,
      "ality": 3148,
      "imate": 3149,
      "Ġforty": 3150,
      "ille": 3151,
      "ĠHere": 3152,
      "Ġconsequ": 3153,
      "ĠCrown": 3154,
      "ĠComm": 3155,
      "Ġcomes": 3156,
      "ights": 3157,
      "ĠBunk": 3158,
      "isted": 3159,
      "acle": 3160,
      "osity": 3161,
      "Ġran": 3162,
      "Ġrich": 3163,
      "ĠLong": 3164,
      "ĠLond": 3165,
      "Ġintrodu": 3166,
      "ager": 3167,
      "ĠDon": 3168,
      "Ġdisclaim": 3169,
      "âĢ¢": 3170,
      "Ġoutside": 3171,
      "ĠRE": 3172,
      "âĢĶ\"": 3173,
      "Ġener": 3174,
      "Ġleaves": 3175,
      "Ġuser": 3176,
      "Ġ25": 3177,
      "Ġformat": 3178,
      "Ġconspicuous": 3179,
      "Ġsmaller": 3180,
      "ĠAlpha": 3181,
      "Ġclean": 3182,
      "ĠCont": 3183,
      "Ġfigures": 3184,
      "Ġgenerally": 3185,
      "ointed": 3186,
      "Ġpreser": 3187,
      "Ġchildren": 3188,
      "Ġcollection": 3189,
      "Ġorders": 3190,
      "Ġlearn": 3191,
      "Ġlearned": 3192,
      "Ġmethods": 3193,
      "Ġdisplaying": 3194,
      "Ġsweet": 3195,
      "Ġworthy": 3196,
      "Ġparticularly": 3197,
      "Ġmerely": 3198,
      "Ġexpression": 3199,
      "Ġchanges": 3200,
      "Ġuniverse": 3201,
      "Ġbecomes": 3202,
      "ĠWARRAN": 3203,
      "ĠBunker": 3204,
      "ĠLondon": 3205,
      "**": 3206,
      "ECT": 3207,
      "Old": 3208,
      "],": 3209,
      "ae": 3210,
      "ah": 3211,
      "gar": 3212,
      "night": 3213,
      "ox": 3214,
      "uke": 3215,
      "ugg": 3216,
      "view": 3217,
      "Ġer": 3218,
      "Ġtend": 3219,
      "Ġox": 3220,
      "Ġwine": 3221,
      "Ġsitting": 3222,
      "Ġhope": 3223,
      "Ġmouth": 3224,
      "Ġinfer": 3225,
      "Ġinhab": 3226,
      "Ġnin": 3227,
      "Ġbeard": 3228,
      "Ġstones": 3229,
      "Ġonline": 3230,
      "ament": 3231,
      "urg": 3232,
      "ĠPoint": 3233,
      "cho": 3234,
      "chief": 3235,
      "ĠSection": 3236,
      "ĠSarelli": 3237,
      "iform": 3238,
      "elve": 3239,
      "Ġ16": 3240,
      "Ġexclaim": 3241,
      "respond": 3242,
      "acy": 3243,
      "Ġproject": 3244,
      "ander": 3245,
      "atever": 3246,
      "ĠNow": 3247,
      "ĠDIS": 3248,
      "Ġperfect": 3249,
      "Ġgreatly": 3250,
      "Ġgreatest": 3251,
      "ians": 3252,
      "Ġaccompl": 3253,
      "angers": 3254,
      "Ġformed": 3255,
      "there": 3256,
      "Ġscar": 3257,
      "Ġcontact": 3258,
      "Ġimpro": 3259,
      "Ġcopying": 3260,
      "Ġspecial": 3261,
      "Ġknowledge": 3262,
      "Ġthinking": 3263,
      "........................": 3264,
      "III": 3265,
      "Ġsym": 3266,
      "Ġclearly": 3267,
      "Ġbuild": 3268,
      "Ġperformed": 3269,
      "Ġsweep": 3270,
      "Ġgentleman": 3271,
      "Ġpressure": 3272,
      "Ġgreen": 3273,
      "Ġperceive": 3274,
      "Ġimmediate": 3275,
      "Ġgradual": 3276,
      "Ġrecognized": 3277,
      "Ġsplendid": 3278,
      "Ġframe": 3279,
      "Ġnarrow": 3280,
      "Ġsulph": 3281,
      "anguage": 3282,
      "rook": 3283,
      "ĠANY": 3284,
      "Ġwhisper": 3285,
      "MER": 3286,
      "To": 3287,
      "Yes": 3288,
      "bb": 3289,
      "gress": 3290,
      "ien": 3291,
      "ient": 3292,
      "ville": 3293,
      "whe": 3294,
      "well": 3295,
      "Ġ-": 3296,
      "Ġtest": 3297,
      "inion": 3298,
      "Ġwit": 3299,
      "Ġwatched": 3300,
      "Ġscience": 3301,
      "isions": 3302,
      "athe": 3303,
      "Ġbol": 3304,
      "Ġbreat": 3305,
      "Ġfier": 3306,
      "Ġfilled": 3307,
      "Ġfresh": 3308,
      "Ġhop": 3309,
      "oubt": 3310,
      "Ġmission": 3311,
      "Ġinn": 3312,
      "Ġinqu": 3313,
      "llian": 3314,
      "ask": 3315,
      "Ġnamed": 3316,
      "Ġgelatine": 3317,
      "Ġstone": 3318,
      "ĠThat": 3319,
      "ĠAb": 3320,
      "ĠAug": 3321,
      "ections": 3322,
      "ĠScience": 3323,
      "Ġsend": 3324,
      "Ġsevent": 3325,
      "alley": 3326,
      "ulty": 3327,
      "ĠGod": 3328,
      "ĠMAP": 3329,
      "ĠFl": 3330,
      "Ġrays": 3331,
      "Ġspots": 3332,
      "Ġchlor": 3333,
      "ĠProf": 3334,
      "Ġherself": 3335,
      "Ġdoing": 3336,
      "Ġnoble": 3337,
      "Ġanything": 3338,
      "ode": 3339,
      "Ġquant": 3340,
      "Ġmyself": 3341,
      "Ġsmoke": 3342,
      "Ġcommunity": 3343,
      "inking": 3344,
      "Ġpasses": 3345,
      "Ġ35": 3346,
      "Ġfollows": 3347,
      "Ġentrance": 3348,
      "Ġowner": 3349,
      "Ġcoal": 3350,
      "ĠNebul": 3351,
      "ney": 3352,
      "Ġinstance": 3353,
      "Ġpoints": 3354,
      "Ġsubst": 3355,
      "Ġbroke": 3356,
      "Ġbroken": 3357,
      "Ġpersons": 3358,
      "Ġphilosop": 3359,
      "astern": 3360,
      "Ġbrillian": 3361,
      "Ġconfir": 3362,
      "Ġrepresents": 3363,
      "ĠSee": 3364,
      "Ġsolic": 3365,
      "Ġbeauty": 3366,
      "Ġeditions": 3367,
      "Ġobservation": 3368,
      "chess": 3369,
      "Ġhappened": 3370,
      "Ġmaintain": 3371,
      "ridge": 3372,
      "Ġremained": 3373,
      "Ġfifty": 3374,
      "Ġregarded": 3375,
      "Ġaccording": 3376,
      "Ġtalk": 3377,
      "TRI": 3378,
      "Ġconcerning": 3379,
      "ĠMargaret": 3380,
      "Ġvictory": 3381,
      "Ġachie": 3382,
      "Ġintellectual": 3383,
      "Ġcrowd": 3384,
      "Ġbrilliancy": 3385,
      "PL": 3386,
      "Pippin": 3387,
      "aly": 3388,
      "ares": 3389,
      "aft": 3390,
      "cent": 3391,
      "come": 3392,
      "dy": 3393,
      "fort": 3394,
      "gen": 3395,
      "gamma": 3396,
      "known": 3397,
      "magn": 3398,
      "oes": 3399,
      "pri": 3400,
      "uc": 3401,
      "ze": 3402,
      "Â½": 3403,
      "Ġvel": 3404,
      "inent": 3405,
      "Ġwond": 3406,
      "rees": 3407,
      "ising": 3408,
      "Ġbott": 3409,
      "Ġcel": 3410,
      "Ġcig": 3411,
      "Ġhat": 3412,
      "Ġhath": 3413,
      "aran": 3414,
      "Ġmult": 3415,
      "Ġpure": 3416,
      "Ġpath": 3417,
      "Ġportion": 3418,
      "Ġpoured": 3419,
      "Ġthin": 3420,
      "asing": 3421,
      "Ġlines": 3422,
      "Ġlives": 3423,
      "Ġlinks": 3424,
      "star": 3425,
      "Ġgle": 3426,
      "ential": 3427,
      "cell": 3428,
      "Ġones": 3429,
      "aming": 3430,
      "ldeb": 3431,
      "Ġund": 3432,
      "ĠPl": 3433,
      "ĠPerseus": 3434,
      "ational": 3435,
      "ĠHigh": 3436,
      "ift": 3437,
      "ĠGamma": 3438,
      "Ġshape": 3439,
      "ĠMon": 3440,
      "ĠMarch": 3441,
      "umed": 3442,
      "assi": 3443,
      "Ġring": 3444,
      "Ġrad": 3445,
      "anted": 3446,
      "Ġsafe": 3447,
      "ears": 3448,
      "Ġweek": 3449,
      "ĠDec": 3450,
      "ĠDawney": 3451,
      "They": 3452,
      "Ġtwelve": 3453,
      "ciety": 3454,
      "ishing": 3455,
      "Ġlean": 3456,
      "ending": 3457,
      "endent": 3458,
      "ables": 3459,
      "gled": 3460,
      "ubb": 3461,
      "Ġjo": 3462,
      "Ġseeing": 3463,
      "cover": 3464,
      "Ġnews": 3465,
      "Ġeffort": 3466,
      "Ġbring": 3467,
      "Ġnumerous": 3468,
      "ification": 3469,
      "Ġcolon": 3470,
      "Ġadvantage": 3471,
      "Ġequip": 3472,
      "upiter": 3473,
      "elta": 3474,
      "Ġconsidered": 3475,
      "Ġstands": 3476,
      "Ġstanding": 3477,
      "Ġnebulous": 3478,
      "Ġcorrespond": 3479,
      "Ġtowards": 3480,
      "Ġdelight": 3481,
      "Ġarranged": 3482,
      "Ġsuperior": 3483,
      "Ġexplan": 3484,
      "Ġproperty": 3485,
      "Ġcurrent": 3486,
      "Ġindicate": 3487,
      "Ġpainter": 3488,
      "Ġdifficulty": 3489,
      "Ġwalked": 3490,
      "Ġbirds": 3491,
      "Ġmeeting": 3492,
      "Ġsituated": 3493,
      "ĠServ": 3494,
      "Ġsucceeded": 3495,
      "Ġmurmured": 3496,
      "Ġself": 3497,
      "ĠGovern": 3498,
      "ldebaran": 3499,
      "04": 3500,
      "?'": 3501,
      "AD": 3502,
      "ATION": 3503,
      "For": 3504,
      "JECT": 3505,
      "Lab": 3506,
      "aurus": 3507,
      "com": 3508,
      "ef": 3509,
      "five": 3510,
      "ply": 3511,
      "upp": 3512,
      "Ġ=": 3513,
      "Ġing": 3514,
      "Ġign": 3515,
      "ina": 3516,
      "ern": 3517,
      "onst": 3518,
      "att": 3519,
      "ators": 3520,
      "Ġbig": 3521,
      "Ġcatch": 3522,
      "Ġho": 3523,
      "Ġmention": 3524,
      "Ġtot": 3525,
      "Ġdress": 3526,
      "utation": 3527,
      "Ġgun": 3528,
      "lyn": 3529,
      "Ġstat": 3530,
      "cely": 3531,
      "Ġwhatever": 3532,
      "owers": 3533,
      "Ġur": 3534,
      "Ġasc": 3535,
      "ĠAldebaran": 3536,
      "ĠSat": 3537,
      "ĠHy": 3538,
      "Ġsus": 3539,
      "emini": 3540,
      "ĠGUT": 3541,
      "Ġshare": 3542,
      "Ġcomet": 3543,
      "ela": 3544,
      "Ġvan": 3545,
      "Ġ100": 3546,
      "ĠBeta": 3547,
      "ĠBrook": 3548,
      "Ġexamp": 3549,
      "oused": 3550,
      "Ġsole": 3551,
      "Ġchair": 3552,
      "ĠDan": 3553,
      "Ġfever": 3554,
      "place": 3555,
      "Ġuniform": 3556,
      "Ġtrou": 3557,
      "Ġcommitted": 3558,
      "Ġconstruct": 3559,
      "Ġjour": 3560,
      "Ġblaz": 3561,
      "they": 3562,
      "Ġrepeated": 3563,
      "ĠJuly": 3564,
      "ĠJupiter": 3565,
      "oyalty": 3566,
      "Ġpassage": 3567,
      "Ġdonate": 3568,
      "Ġvision": 3569,
      "Ġdescend": 3570,
      "opeia": 3571,
      "Ġcentury": 3572,
      "ENBER": 3573,
      "Ġrequires": 3574,
      "Ġopinion": 3575,
      "Ġ188": 3576,
      "arius": 3577,
      "Ġsword": 3578,
      "Ġobtaining": 3579,
      "Ġmiddle": 3580,
      "Ġofficial": 3581,
      "Ġsimple": 3582,
      "Ġmarried": 3583,
      "Ġremarked": 3584,
      "Ġholding": 3585,
      "Ġdraw": 3586,
      "Ġvisitor": 3587,
      "Ġtransp": 3588,
      "Ġconditions": 3589,
      "Ġperforming": 3590,
      "ĠCaptain": 3591,
      "Ġleading": 3592,
      "Ġhighest": 3593,
      "Ġquickly": 3594,
      "EMENT": 3595,
      "Ġescape": 3596,
      "Ġfaces": 3597,
      "Ġpursu": 3598,
      "Ġservice": 3599,
      "Ġprincip": 3600,
      "Ġsufficient": 3601,
      "egas": 3602,
      "ĠarXivLab": 3603,
      "Ġprisoner": 3604,
      "Ġstraight": 3605,
      "Ġtemperature": 3606,
      "Ġduty": 3607,
      "Ġprecipit": 3608,
      "ĠPROJECT": 3609,
      "Ġapplicable": 3610,
      "Ġentirely": 3611,
      "Ġatmosphere": 3612,
      "Ġcircumst": 3613,
      "Ġmaximum": 3614,
      "magnitude": 3615,
      "assiopeia": 3616,
      "Ġequipment": 3617,
      "ĠGUTENBER": 3618,
      "Ġexample": 3619,
      "ĠarXivLabs": 3620,
      "ĠGUTENBERG": 3621,
      "18": 3622,
      "At": 3623,
      "OM": 3624,
      "_.": 3625,
      "af": 3626,
      "don": 3627,
      "hol": 3628,
      "ping": 3629,
      "rous": 3630,
      "rict": 3631,
      "uge": 3632,
      "Ġtall": 3633,
      "heast": 3634,
      "inc": 3635,
      "inery": 3636,
      "Ġware": 3637,
      "ishes": 3638,
      "atal": 3639,
      "Ġbent": 3640,
      "Ġbatter": 3641,
      "Ġfit": 3642,
      "Ġcow": 3643,
      "Ġcred": 3644,
      "Ġmis": 3645,
      "Ġmor": 3646,
      "Ġmot": 3647,
      "Ġmess": 3648,
      "estern": 3649,
      "Ġpop": 3650,
      "ancy": 3651,
      "Ġdin": 3652,
      "Ġden": 3653,
      "Ġdust": 3654,
      "Ġdata": 3655,
      "Ġlive": 3656,
      "Ġlived": 3657,
      "icron": 3658,
      "Ġgar": 3659,
      "Ġreenforce": 3660,
      "oted": 3661,
      "idden": 3662,
      "ĠTO": 3663,
      "ĠTower": 3664,
      "ĠIII": 3665,
      "Ġye": 3666,
      "Ġattain": 3667,
      "ĠAG": 3668,
      "Ġancient": 3669,
      "Ġnote": 3670,
      "Ġseized": 3671,
      "ĠGemini": 3672,
      "this": 3673,
      "ĠComp": 3674,
      "Ġship": 3675,
      "Ġshaft": 3676,
      "ĠMer": 3677,
      "ĠMay": 3678,
      "Ġexceed": 3679,
      "aces": 3680,
      "Ġprogress": 3681,
      "Ġwheels": 3682,
      "apers": 3683,
      "osition": 3684,
      "ĠFig": 3685,
      "Ġalco": 3686,
      "Ġrise": 3687,
      "ĠLet": 3688,
      "Ġspr": 3689,
      "Ġspot": 3690,
      "akage": 3691,
      "ĠNE": 3692,
      "ĠOct": 3693,
      "Ġcompelled": 3694,
      "Ġoutl": 3695,
      "cious": 3696,
      "ples": 3697,
      "Ġusually": 3698,
      "Ġcloth": 3699,
      "Ġglance": 3700,
      "Ġgloom": 3701,
      "Ġqueen": 3702,
      "phi": 3703,
      "ogers": 3704,
      "Ġ21": 3705,
      "Ġsheep": 3706,
      "Ġpossib": 3707,
      "Ġinterior": 3708,
      "Ġcontem": 3709,
      "ĠState": 3710,
      "Ġdesired": 3711,
      "Ġinstead": 3712,
      "cyon": 3713,
      "Ġdetails": 3714,
      "Ġactual": 3715,
      "Ġactually": 3716,
      "Ġdefe": 3717,
      "................................": 3718,
      "Ġaddress": 3719,
      "cules": 3720,
      "Ġcapacity": 3721,
      "Ġdifference": 3722,
      "Ġcertainly": 3723,
      "Ġredoubt": 3724,
      "Ġmounted": 3725,
      "Ġwaiting": 3726,
      "Ġpossession": 3727,
      "Ġvolume": 3728,
      "Ġgrand": 3729,
      "Ġexperience": 3730,
      "Ġstream": 3731,
      "Ġguard": 3732,
      "Ġkeeping": 3733,
      "Ġcondition": 3734,
      "Ġpermitted": 3735,
      "Ġpatri": 3736,
      "Ġbeginning": 3737,
      "Ġmachinery": 3738,
      "Ġproportion": 3739,
      "mbling": 3740,
      "Ġstruck": 3741,
      "Ġmovement": 3742,
      "Ġmeasure": 3743,
      "Ġmusk": 3744,
      "ILITY": 3745,
      "Ġimmediately": 3746,
      "Ġsufficiently": 3747,
      "Ġschol": 3748,
      "Ġfavorable": 3749,
      "Ġpowder": 3750,
      "Ġexhaustion": 3751,
      "Ġpayments": 3752,
      "Ġencoun": 3753,
      "Ġcompletely": 3754,
      "ourage": 3755,
      "Ġsurround": 3756,
      "Ġsatisfact": 3757,
      "Ġsecretary": 3758,
      "Ġbeneath": 3759,
      "Ġpieces": 3760,
      "Ġforgot": 3761,
      "Ġopportunity": 3762,
      "Ġemulsion": 3763,
      "Ġcomparatively": 3764,
      "Ġmodern": 3765,
      "ĠVenus": 3766,
      "Ġexclaimed": 3767,
      "ĠAugust": 3768,
      "Ġexplanation": 3769,
      "ĠBrooklyn": 3770,
      "\";": 3771,
      "An": 3772,
      "By": 3773,
      "CI": 3774,
      "MIT": 3775,
      "aff": 3776,
      "band": 3777,
      "eal": 3778,
      "ford": 3779,
      "ging": 3780,
      "ipt": 3781,
      "lished": 3782,
      "pher": 3783,
      "ral": 3784,
      "rated": 3785,
      "ture": 3786,
      "vous": 3787,
      "Ġerr": 3788,
      "Ġtor": 3789,
      "Ġtreat": 3790,
      "Ġtons": 3791,
      "Ġaf": 3792,
      "inite": 3793,
      "Ġsad": 3794,
      "Ġsought": 3795,
      "nds": 3796,
      "enance": 3797,
      "itrate": 3798,
      "Ġbul": 3799,
      "Ġbased": 3800,
      "Ġft": 3801,
      "Ġfright": 3802,
      "Ġcrit": 3803,
      "Ġhar": 3804,
      "Ġhus": 3805,
      "Ġmat": 3806,
      "orough": 3807,
      "Ġpor": 3808,
      "Ġport": 3809,
      "Ġlau": 3810,
      "room": 3811,
      "Ġner": 3812,
      "uted": 3813,
      "Ġeager": 3814,
      "Ġgig": 3815,
      "Ġgod": 3816,
      "ented": 3817,
      "cturus": 3818,
      "Ġstro": 3819,
      "eters": 3820,
      "ĠTwo": 3821,
      "ĠTaurus": 3822,
      "Ġforces": 3823,
      "Ġforget": 3824,
      "verse": 3825,
      "ĠII": 3826,
      "ĠIV": 3827,
      "Ġyellow": 3828,
      "ĠSc": 3829,
      "ĠSome": 3830,
      "ĠHaving": 3831,
      "Ġsusp": 3832,
      "Ġsees": 3833,
      "pping": 3834,
      "ĠCit": 3835,
      "eliz": 3836,
      "Ġvi": 3837,
      "Ġvain": 3838,
      "aches": 3839,
      "ella": 3840,
      "Ġwheel": 3841,
      "usters": 3842,
      "asteliz": 3843,
      "Ġrate": 3844,
      "Ġrank": 3845,
      "Ġspo": 3846,
      "aker": 3847,
      "igel": 3848,
      "Ġintended": 3849,
      "ĠDAM": 3850,
      "ooking": 3851,
      "ĠRangers": 3852,
      "Ġtwink": 3853,
      "Ġapplied": 3854,
      "Ġuns": 3855,
      "Ġadop": 3856,
      "Ġclass": 3857,
      "Ġclosed": 3858,
      "Ġclaim": 3859,
      "Ġ27": 3860,
      "Ġlikely": 3861,
      "Ġprec": 3862,
      "Ġremains": 3863,
      "Ġconstant": 3864,
      "cester": 3865,
      "Ġpositions": 3866,
      "Ġnearer": 3867,
      "Ġentered": 3868,
      "Ġsupply": 3869,
      "Ġsecure": 3870,
      "Ġdeser": 3871,
      "Ġdesire": 3872,
      "Ġ40": 3873,
      "Ġsett": 3874,
      "Ġcountenance": 3875,
      "Ġsubsequ": 3876,
      "Ġwars": 3877,
      "Ġseries": 3878,
      "Ġbrighter": 3879,
      "Ġbrightness": 3880,
      "Ġinches": 3881,
      "Ġbreaks": 3882,
      "Ġ90": 3883,
      "Ġboil": 3884,
      "Ġsouthern": 3885,
      "Ġmagnific": 3886,
      "Ġsimply": 3887,
      "amme": 3888,
      "ITH": 3889,
      "Ġparagraphs": 3890,
      "Ġprobable": 3891,
      "Ġprompt": 3892,
      "Ġgrave": 3893,
      "Ġexperiments": 3894,
      "Ġdelic": 3895,
      "Ġcircle": 3896,
      "ground": 3897,
      "Ġexhib": 3898,
      "Ġlimitation": 3899,
      "Ġfifteen": 3900,
      "Ġpapers": 3901,
      "Ġsummer": 3902,
      "Ġseparate": 3903,
      "which": 3904,
      "Ġintelligence": 3905,
      "Ġdiamond": 3906,
      "Ġmilitia": 3907,
      "Ġcaused": 3908,
      "Ġpurifier": 3909,
      "Ġterrible": 3910,
      "Ġslightly": 3911,
      "Ġanimal": 3912,
      "Star": 3913,
      "Ġrapidly": 3914,
      "Ġdefective": 3915,
      "Ġgallant": 3916,
      "Ġbeside": 3917,
      "Ġquarter": 3918,
      "IGH": 3919,
      "Ġcreating": 3920,
      "Ġphenomenon": 3921,
      "rsa": 3922,
      "Ġspirit": 3923,
      "Ġdistinguished": 3924,
      "ĠLIMIT": 3925,
      "Ġfrequ": 3926,
      "Ġclothes": 3927,
      "ĠScorpio": 3928,
      "Ġreplacement": 3929,
      "Ġenergy": 3930,
      "Ġquantity": 3931,
      "Ġvelve": 3932,
      "ĠDecie": 3933,
      "ĠGovernor": 3934,
      "ĠAGRE": 3935,
      "Ġalcohol": 3936,
      "ĠDAMAG": 3937,
      "ĠLIMITED": 3938,
      "'re": 3939,
      "15": 3940,
      "Come": 3941,
      "LD": 3942,
      "LL": 3943,
      "Not": 3944,
      "Se": 3945,
      "So": 3946,
      "US": 3947,
      "dle": 3948,
      "gn": 3949,
      "iet": 3950,
      "just": 3951,
      "ns": 3952,
      "uck": 3953,
      "zen": 3954,
      "Ġtiss": 3955,
      "Ġtakes": 3956,
      "eral": 3957,
      "Ġwore": 3958,
      "Ġsens": 3959,
      "Ġsides": 3960,
      "Ġbowed": 3961,
      "Ġfed": 3962,
      "Ġfast": 3963,
      "Ġcam": 3964,
      "Ġcustom": 3965,
      "Ġhot": 3966,
      "Ġhither": 3967,
      "Ġhung": 3968,
      "Ġmal": 3969,
      "orious": 3970,
      "Ġpaying": 3971,
      "Ġdame": 3972,
      "asm": 3973,
      "Ġlack": 3974,
      "rol": 3975,
      "iced": 3976,
      "Ġbearing": 3977,
      "Ġheated": 3978,
      "Ġhealth": 3979,
      "Ġgiant": 3980,
      "Ġstation": 3981,
      "ĠAS": 3982,
      "Ġanx": 3983,
      "ĠHart": 3984,
      "Ġseat": 3985,
      "iff": 3986,
      "ulated": 3987,
      "rand": 3988,
      "iles": 3989,
      "ĠGl": 3990,
      "ĠGerm": 3991,
      "ĠCong": 3992,
      "ĠCON": 3993,
      "uss": 3994,
      "estial": 3995,
      "quar": 3996,
      "Ġneck": 3997,
      "Ġexam": 3998,
      "Ġexempt": 3999,
      "Ġexcell": 4000,
      ".....": 4001,
      "Ġpros": 4002,
      "Ġprogr": 4003,
      "ĠWITH": 4004,
      "Ġallow": 4005,
      "oses": 4006,
      "Ġsave": 4007,
      "ĠProcyon": 4008,
      "ĠNove": 4009,
      "ivative": 4010,
      "Ġweight": 4011,
      "Ġarriv": 4012,
      "Then": 4013,
      "Ġcompared": 4014,
      "ĠRed": 4015,
      "ĠRigel": 4016,
      "Ġperil": 4017,
      "Ġenorm": 4018,
      "uded": 4019,
      "plic": 4020,
      "Ġunw": 4021,
      "Ġflu": 4022,
      "Ġflat": 4023,
      "Ġflies": 4024,
      "Ġmyster": 4025,
      "ephe": 4026,
      "ribe": 4027,
      "inton": 4028,
      "Ġ24": 4029,
      "izing": 4030,
      "ueville": 4031,
      "avius": 4032,
      "Ġattached": 4033,
      "Ġjud": 4034,
      "Ġjoy": 4035,
      "Ġpole": 4036,
      "ĠThus": 4037,
      "Ġthrone": 4038,
      "Ġscale": 4039,
      "Ġimpress": 4040,
      "withstand": 4041,
      "Ġconsist": 4042,
      "Ġexped": 4043,
      "Ġentity": 4044,
      "Ġrace": 4045,
      "ensive": 4046,
      "Ġspeaking": 4047,
      "Ġsuppose": 4048,
      "ipper": 4049,
      "Ġ45": 4050,
      "Ġoperations": 4051,
      "Ġ***": 4052,
      "Ġsket": 4053,
      "Ġcarriage": 4054,
      "Ġpointed": 4055,
      "Ġwarm": 4056,
      "Ġsaying": 4057,
      "Ġadvanced": 4058,
      "Ġequally": 4059,
      "Ġsteel": 4060,
      "Ġredistribut": 4061,
      "Ġengaged": 4062,
      "Ġswarm": 4063,
      "Ġdiscoveries": 4064,
      "Ġsoul": 4065,
      "Ġproduce": 4066,
      "Ġmagnifying": 4067,
      "Ġgenerations": 4068,
      "Ġcarefully": 4069,
      "Ġconduct": 4070,
      "Ġcircular": 4071,
      "Ġrunning": 4072,
      "Ġimportance": 4073,
      "Ġwomen": 4074,
      "Ġlimited": 4075,
      "Ġvalue": 4076,
      "ĠClinton": 4077,
      "ĠColonial": 4078,
      "Ġcomplying": 4079,
      "Ġsumm": 4080,
      "Ġvariable": 4081,
      "Ġincreasing": 4082,
      "THE": 4083,
      "ashion": 4084,
      "Ġsuggested": 4085,
      "Ġreveal": 4086,
      "Ġrevealed": 4087,
      "Ġdemand": 4088,
      "Ġresearch": 4089,
      "Why": 4090,
      "Ġafterwards": 4091,
      "porary": 4092,
      "Ġtouched": 4093,
      "Ġsleep": 4094,
      "Ġsituation": 4095,
      "Ġpractically": 4096,
      "ĠMargit": 4097,
      "Ġburning": 4098,
      "ĠHercules": 4099,
      "Ġpowers": 4100,
      "Ġderivative": 4101,
      "Ġconcealed": 4102,
      "Ġsavage": 4103,
      "Ġsurprise": 4104,
      "Ġadditional": 4105,
      "Ġprepared": 4106,
      "Ġreported": 4107,
      "Ġnaturally": 4108,
      "Ġshadow": 4109,
      "ĠZeta": 4110,
      "Ġdomain": 4111,
      "Ġfingers": 4112,
      "Ġavailable": 4113,
      "ĠLongueville": 4114,
      "ĠNebula": 4115,
      "Ġbottom": 4116,
      "Ġcelestial": 4117,
      "Ġignor": 4118,
      "Ġprincipal": 4119,
      "ĠOctober": 4120,
      "Ġhusband": 4121,
      "Ġgigantic": 4122,
      "Ġviol": 4123,
      "Ġprogramme": 4124,
      "ĠNovember": 4125,
      "withstanding": 4126,
      ").": 4127,
      "General": 4128,
      "Mr": 4129,
      "Miss": 4130,
      "One": 4131,
      "UN": 4132,
      "con": 4133,
      "cle": 4134,
      "calm": 4135,
      "da": 4136,
      "dd": 4137,
      "dated": 4138,
      "eer": 4139,
      "eav": 4140,
      "ga": 4141,
      "gest": 4142,
      "his": 4143,
      "hold": 4144,
      "hip": 4145,
      "iac": 4146,
      "iance": 4147,
      "kes": 4148,
      "mitted": 4149,
      "pon": 4150,
      "under": 4151,
      "zeta": 4152,
      "Ġ$": 4153,
      "Ġtrying": 4154,
      "Ġowing": 4155,
      "Ġsick": 4156,
      "itle": 4157,
      "itive": 4158,
      "Ġband": 4159,
      "Ġcard": 4160,
      "Ġcrown": 4161,
      "Ġcourage": 4162,
      "Ġhammer": 4163,
      "Ġmort": 4164,
      "Ġpol": 4165,
      "Ġpick": 4166,
      "Ġpriv": 4167,
      "Ġtop": 4168,
      "Ġdi": 4169,
      "Ġthorough": 4170,
      "ashed": 4171,
      "Ġliving": 4172,
      "Ġgen": 4173,
      "ctor": 4174,
      "cture": 4175,
      "adel": 4176,
      "Ġstep": 4177,
      "set": 4178,
      "iring": 4179,
      "irst": 4180,
      "urs": 4181,
      "ĠPr": 4182,
      "ĠPres": 4183,
      "tering": 4184,
      "ĠAqu": 4185,
      "ĠAnt": 4186,
      "Ġconcept": 4187,
      "alled": 4188,
      "ifted": 4189,
      "ĠCassiopeia": 4190,
      "Ġshine": 4191,
      "Ġshore": 4192,
      "elge": 4193,
      "Ġvalley": 4194,
      "ĠMen": 4195,
      "ĠMor": 4196,
      "ĠMass": 4197,
      "Ġexer": 4198,
      "ola": 4199,
      "opic": 4200,
      "ounds": 4201,
      "aste": 4202,
      "ĠFeb": 4203,
      "Ġalarm": 4204,
      "Ġrough": 4205,
      "agitt": 4206,
      "ĠDuring": 4207,
      "ĠEl": 4208,
      "Ġplay": 4209,
      "Ġtwice": 4210,
      "abled": 4211,
      "Ġgrat": 4212,
      "Ġ28": 4213,
      "Ġ200": 4214,
      "ĠThou": 4215,
      "Ġseek": 4216,
      "Ġundert": 4217,
      "Ġshoulders": 4218,
      "Ġschem": 4219,
      "Ġcontriv": 4220,
      "ĠJan": 4221,
      "ĠJames": 4222,
      "Ġpassion": 4223,
      "psilon": 4224,
      "Ġpeaks": 4225,
      "Ġraised": 4226,
      "ensity": 4227,
      "ĠArcturus": 4228,
      "iction": 4229,
      "ĠTHIS": 4230,
      "Ġarmed": 4231,
      "Ġturning": 4232,
      "Ġskin": 4233,
      "Ġendeav": 4234,
      "Ġdefense": 4235,
      "Ġcommanded": 4236,
      "ricorn": 4237,
      "Ġfourth": 4238,
      "gged": 4239,
      "Ġcheek": 4240,
      "Ġgives": 4241,
      "Ġpaused": 4242,
      "Ġfortun": 4243,
      "Ġfoes": 4244,
      "ORE": 4245,
      "Ġthousands": 4246,
      "Ġsolid": 4247,
      "Ġproduction": 4248,
      "Ġmarvel": 4249,
      "Ġpersonal": 4250,
      "Ġinfluence": 4251,
      "Ġillumin": 4252,
      "Ġinvest": 4253,
      "Ġpossessed": 4254,
      "Ġplease": 4255,
      "Ġaston": 4256,
      "Ġcosts": 4257,
      "Ġplaces": 4258,
      "Ġwanted": 4259,
      "Ġpictures": 4260,
      "alties": 4261,
      "Ġelse": 4262,
      "Ġaccordance": 4263,
      "Ġhonour": 4264,
      "Ġprinciple": 4265,
      "epsilon": 4266,
      "Ġdivided": 4267,
      "Ġanimals": 4268,
      "Ġdegree": 4269,
      "Ġdegrees": 4270,
      "Ġperceived": 4271,
      "Ġpreviously": 4272,
      "Ġroyalties": 4273,
      "ĠPhil": 4274,
      "cientific": 4275,
      "Chief": 4276,
      "Christian": 4277,
      "Ġinvention": 4278,
      "Ġburst": 4279,
      "Ġangry": 4280,
      "ĠJohnson": 4281,
      "Ġsquare": 4282,
      "Ġrendered": 4283,
      "Ġapparently": 4284,
      "Ġneighborhood": 4285,
      "Ġspectacle": 4286,
      "ĠSTAR": 4287,
      "ĠTycho": 4288,
      "ĠCommander": 4289,
      "Ġinhabit": 4290,
      "Ġscarcely": 4291,
      "Ġtotal": 4292,
      "Ġcircumstances": 4293,
      "Ġdinner": 4294,
      "Ġdefeat": 4295,
      "Ġvelvet": 4296,
      "ĠCongress": 4297,
      "Ġfluid": 4298,
      "elgeuse": 4299,
      "40": 4300,
      "62": 4301,
      "Ad": 4302,
      "Good": 4303,
      "Greta": 4304,
      "Let": 4305,
      "OO": 4306,
      "Oh": 4307,
      "VI": 4308,
      "aign": 4309,
      "dom": 4310,
      "ean": 4311,
      "four": 4312,
      "hy": 4313,
      "how": 4314,
      "ike": 4315,
      "lo": 4316,
      "lig": 4317,
      "lies": 4318,
      "maps": 4319,
      "nest": 4320,
      "rad": 4321,
      "two": 4322,
      "vile": 4323,
      "wed": 4324,
      "ĠQ": 4325,
      "Ġrom": 4326,
      "Ġtone": 4327,
      "Ġtree": 4328,
      "Ġaut": 4329,
      "Ġaver": 4330,
      "Ġopt": 4331,
      "Ġwing": 4332,
      "Ġsalt": 4333,
      "rest": 4334,
      "ony": 4335,
      "atory": 4336,
      "eds": 4337,
      "ital": 4338,
      "Ġbord": 4339,
      "Ġfun": 4340,
      "Ġhang": 4341,
      "oucester": 4342,
      "Ġmic": 4343,
      "Ġmel": 4344,
      "Ġmixed": 4345,
      "Ġpit": 4346,
      "Ġpack": 4347,
      "Ġine": 4348,
      "ana": 4349,
      "Ġda": 4350,
      "Ġlb": 4351,
      "Ġlake": 4352,
      "Ġlying": 4353,
      "Ġlaid": 4354,
      "Ġloose": 4355,
      "Ġnon": 4356,
      "Ġnet": 4357,
      "Ġnone": 4358,
      "ley": 4359,
      "lease": 4360,
      "Ġbeast": 4361,
      "stood": 4362,
      "oting": 4363,
      "otograph": 4364,
      "Ġsty": 4365,
      "Ġstop": 4366,
      "Ġstret": 4367,
      "etes": 4368,
      "Ġaside": 4369,
      "ĠPapers": 4370,
      "illage": 4371,
      "ĠHumph": 4372,
      "Ġselect": 4373,
      "Ġseason": 4374,
      "Ġconvey": 4375,
      "ools": 4376,
      "ooetes": 4377,
      "ĠGree": 4378,
      "essed": 4379,
      "ĠCet": 4380,
      "ĠCamb": 4381,
      "Ġvap": 4382,
      "ĠMany": 4383,
      "ests": 4384,
      "blem": 4385,
      "ĠBay": 4386,
      "acc": 4387,
      "ache": 4388,
      "ument": 4389,
      "ĠLanc": 4390,
      "ouring": 4391,
      "Ġspl": 4392,
      "Ġspark": 4393,
      "Ġchance": 4394,
      "ival": 4395,
      "Ġkiss": 4396,
      "Ġweak": 4397,
      "ague": 4398,
      "ĠEven": 4399,
      "Ġnose": 4400,
      "ptember": 4401,
      "Ġcompre": 4402,
      "Ġcomposed": 4403,
      "âĢĶ-": 4404,
      "Ġens": 4405,
      "endous": 4406,
      "ĠHeights": 4407,
      "Ġclay": 4408,
      "Ġtrust": 4409,
      "Ġglob": 4410,
      "Ġquest": 4411,
      "Ġaccur": 4412,
      "Ġaccident": 4413,
      "ĠYet": 4414,
      "ĠUrsa": 4415,
      "text": 4416,
      "Ġyourself": 4417,
      "atesby": 4418,
      "rug": 4419,
      "glasses": 4420,
      "Ġ37": 4421,
      "Ġears": 4422,
      "Ġlargest": 4423,
      "Ġexposed": 4424,
      "Ġempt": 4425,
      "Ġsurv": 4426,
      "Ġfarther": 4427,
      "Ġspeck": 4428,
      "ĠNevile": 4429,
      "Ġ55": 4430,
      "Ġprovisions": 4431,
      "Ġcarbon": 4432,
      "Ġreceiving": 4433,
      "Ġmidnight": 4434,
      "Ġenemies": 4435,
      "ĠKasteliz": 4436,
      "Ġ60": 4437,
      "Ġcapable": 4438,
      "Ġgiving": 4439,
      "Ġmodels": 4440,
      "Ġdepends": 4441,
      "Ġ80": 4442,
      "note": 4443,
      "Ġsolar": 4444,
      "Ġviewed": 4445,
      "Ġmarriage": 4446,
      "ĠWarren": 4447,
      "Ġcompanions": 4448,
      "Ġillum": 4449,
      "Ġwait": 4450,
      "Ġwaist": 4451,
      "ĠWebb": 4452,
      "Ġstreaks": 4453,
      "ship": 4454,
      "Ġexists": 4455,
      "Ġpatent": 4456,
      "ĠCapella": 4457,
      "Ġdoubtless": 4458,
      "Ġsuperint": 4459,
      "ĠClavius": 4460,
      "Ġmovements": 4461,
      "Ġtailings": 4462,
      "Ġimagination": 4463,
      "Ġtext": 4464,
      "Ġconnection": 4465,
      "Ġvariety": 4466,
      "Ġmusic": 4467,
      "Ġdecided": 4468,
      "Ġcaus": 4469,
      "Ġhurried": 4470,
      "Ġpursued": 4471,
      "Ġestab": 4472,
      "Ġeleven": 4473,
      "ambda": 4474,
      "ĠSociety": 4475,
      "Ġcrack": 4476,
      "Ġgradually": 4477,
      "Ġdisappeared": 4478,
      "Ġsurprised": 4479,
      "Ġduchess": 4480,
      "Ġtype": 4481,
      "ĠMontcalm": 4482,
      "Ġdetermined": 4483,
      "Ġphenomena": 4484,
      "Ġplainly": 4485,
      "Ġrevolution": 4486,
      "ĠLyra": 4487,
      "Ġassistance": 4488,
      "ĠLeo": 4489,
      "Ġexactly": 4490,
      "Ġpenet": 4491,
      "Ġinformed": 4492,
      "Ġsymp": 4493,
      "Ġbuilding": 4494,
      "Ġwhispered": 4495,
      "Ġphilosopher": 4496,
      "ĠSaturn": 4497,
      "Ġtrouble": 4498,
      "Ġbatteries": 4499,
      "Ġcredit": 4500,
      "Ġpopular": 4501,
      "Ġreenforcements": 4502,
      "ĠCitations": 4503,
      "Ġsettled": 4504,
      "Ġmagnificent": 4505,
      "ĠGloucester": 4506,
      "quarters": 4507,
      "Ġarrival": 4508,
      "Ġexpedition": 4509,
      "Ġinhabitants": 4510,
      "10": 4511,
      "41": 4512,
      "51": 4513,
      "500": 4514,
      "Ab": 4515,
      "ACH": 4516,
      "Can": 4517,
      "De": 4518,
      "Foot": 4519,
      "Look": 4520,
      "Of": 4521,
      "Put": 4522,
      "Rozsi": 4523,
      "TY": 4524,
      "Your": 4525,
      "cott": 4526,
      "ees": 4527,
      "fety": 4528,
      "gers": 4529,
      "ii": 4530,
      "noon": 4531,
      "pent": 4532,
      "ram": 4533,
      "tts": 4534,
      "ux": 4535,
      "ugh": 4536,
      "uable": 4537,
      "wick": 4538,
      "ygn": 4539,
      "inced": 4540,
      "erton": 4541,
      "Ġsister": 4542,
      "reen": 4543,
      "Ġbay": 4544,
      "Ġbore": 4545,
      "Ġbare": 4546,
      "Ġbull": 4547,
      "Ġbrow": 4548,
      "Ġburi": 4549,
      "Ġfro": 4550,
      "Ġfold": 4551,
      "Ġcoo": 4552,
      "Ġcru": 4553,
      "Ġcaut": 4554,
      "Ġhorn": 4555,
      "Ġhops": 4556,
      "Ġharm": 4557,
      "Ġhidden": 4558,
      "ouds": 4559,
      "Ġmajor": 4560,
      "Ġpull": 4561,
      "Ġdry": 4562,
      "Ġdaz": 4563,
      "Ġdots": 4564,
      "Ġlad": 4565,
      "Ġlot": 4566,
      "Ġnitrate": 4567,
      "leep": 4568,
      "Ġeastern": 4569,
      "Ġbeat": 4570,
      "stract": 4571,
      "Ġgro": 4572,
      "ctions": 4573,
      "Ġretain": 4574,
      "Ġreser": 4575,
      "alities": 4576,
      "ote": 4577,
      "ottle": 4578,
      "Ġstir": 4579,
      "Ġstairs": 4580,
      "Ġsteps": 4581,
      "sect": 4582,
      "rie": 4583,
      "imately": 4584,
      "ĠIND": 4585,
      "Ġaspect": 4586,
      "ĠAm": 4587,
      "Ġantic": 4588,
      "ĠSm": 4589,
      "ĠSch": 4590,
      "illing": 4591,
      "aining": 4592,
      "ĠHo": 4593,
      "Ġhabit": 4594,
      "Ġnoticed": 4595,
      "Ġorange": 4596,
      "Ġorbit": 4597,
      "raid": 4598,
      "ĠTheir": 4599,
      "thy": 4600,
      "ĠCephe": 4601,
      "Ġshook": 4602,
      "Ġcomr": 4603,
      "ĠBe": 4604,
      "Ġneare": 4605,
      "Ġexcl": 4606,
      "olas": 4607,
      "oph": 4608,
      "Ġproblem": 4609,
      "umm": 4610,
      "unic": 4611,
      "Ġsafety": 4612,
      "Ġchoose": 4613,
      "ivity": 4614,
      "ĠEm": 4615,
      "arted": 4616,
      "Ġcompet": 4617,
      "Ġleaving": 4618,
      "Ġleakage": 4619,
      "Ġappointed": 4620,
      "Ġunknown": 4621,
      "Ġroof": 4622,
      "Ġtherefore": 4623,
      "Ġgrains": 4624,
      "achuse": 4625,
      "ogra": 4626,
      "Ġ23": 4627,
      "Ġprefer": 4628,
      "Ġprepar": 4629,
      "Ġamb": 4630,
      "Ġcopied": 4631,
      "avana": 4632,
      "Ġattended": 4633,
      "Ġblank": 4634,
      "Ġinterp": 4635,
      "Ġoffice": 4636,
      "Ġimpul": 4637,
      "ĠVan": 4638,
      "oyal": 4639,
      "ributions": 4640,
      "Ġconsists": 4641,
      "Ġrare": 4642,
      "Ġfarmer": 4643,
      "Ġmiller": 4644,
      "uriga": 4645,
      "Ġkeen": 4646,
      "Ġinstinct": 4647,
      "Ġdetach": 4648,
      "ENTI": 4649,
      "Ġserved": 4650,
      "Ġmighty": 4651,
      "Ġcolour": 4652,
      "Ġpresents": 4653,
      "Ġpresented": 4654,
      "Ġhundreds": 4655,
      "Ġ75": 4656,
      "ggle": 4657,
      "Ġforeign": 4658,
      "ORK": 4659,
      "ĠReg": 4660,
      "ESS": 4661,
      "ĠAmerica": 4662,
      "Ġcontained": 4663,
      "Ġcorre": 4664,
      "Ġinvolved": 4665,
      "Ġeduc": 4666,
      "Ġstreet": 4667,
      "Ġsixty": 4668,
      "Ġapproached": 4669,
      "Ġwrong": 4670,
      "Ġhastily": 4671,
      "ternal": 4672,
      "ride": 4673,
      "Ġwriter": 4674,
      "Ġexplos": 4675,
      "Ġinstruments": 4676,
      "Ġfifth": 4677,
      "Ġstructure": 4678,
      "Ġstruggle": 4679,
      "Ġdisplay": 4680,
      "Ġ2022": 4681,
      "Ġbelieved": 4682,
      "Ġseparated": 4683,
      "Ġcreation": 4684,
      "Ġcreated": 4685,
      "Ġpainted": 4686,
      "Ġbarre": 4687,
      "Ġdropped": 4688,
      "Ġorganism": 4689,
      "ĠWhy": 4690,
      "ĠNorthern": 4691,
      "ĠCanad": 4692,
      "Ġgrey": 4693,
      "Ġsuggestion": 4694,
      "Ġelev": 4695,
      "Ġexcuse": 4696,
      "Ġastronomical": 4697,
      "Ġwoods": 4698,
      "Ġapproaching": 4699,
      "Ġtouch": 4700,
      "Ġcampaign": 4701,
      "Ġpractical": 4702,
      "Ġlegs": 4703,
      "Ġsavages": 4704,
      "Ġlabour": 4705,
      "Ġpunches": 4706,
      "Ġdimin": 4707,
      "Ġquarters": 4708,
      "Ġsmooth": 4709,
      "Ġcalculated": 4710,
      "Ġprepare": 4711,
      "Ġpainting": 4712,
      "ĠVirgo": 4713,
      "Ġfaith": 4714,
      "ĠMinor": 4715,
      "ĠBetelgeuse": 4716,
      "Ġprinted": 4717,
      "Ġsorry": 4718,
      "ĠDonations": 4719,
      "Ġperfectly": 4720,
      "Ġsulphate": 4721,
      "athered": 4722,
      "ĠProfess": 4723,
      "Ġsolicit": 4724,
      "Ġmentioned": 4725,
      "donate": 4726,
      "Ġpatriot": 4727,
      "Ġscholar": 4728,
      "Ġforgotten": 4729,
      "Ġcritical": 4730,
      "Ġfederal": 4731,
      "ĠGerman": 4732,
      "Ġenormous": 4733,
      "Ġmysterious": 4734,
      "ĠPrescott": 4735,
      "ĠMassachuse": 4736,
      "Ġexerc": 4737,
      "Ġcontrivance": 4738,
      "ĠCambridge": 4739,
      "Footnote": 4740,
      "Ġanticip": 4741,
      "Ġnearest": 4742,
      "ĠMassachusetts": 4743,
      "20": 4744,
      "Cast": 4745,
      "How": 4746,
      "IRE": 4747,
      "ST": 4748,
      "TC": 4749,
      "Well": 4750,
      "_.--": 4751,
      "ault": 4752,
      "comm": 4753,
      "lict": 4754,
      "nu": 4755,
      "ny": 4756,
      "nce": 4757,
      "pir": 4758,
      "ration": 4759,
      "rical": 4760,
      "uing": 4761,
      "uary": 4762,
      "yn": 4763,
      "zz": 4764,
      "Â°": 4765,
      "Ġ&": 4766,
      "Ġess": 4767,
      "Ġaim": 4768,
      "inently": 4769,
      "Ġought": 4770,
      "Ġwire": 4771,
      "Ġwise": 4772,
      "Ġwestern": 4773,
      "Ġsen": 4774,
      "Ġsal": 4775,
      "Ġsout": 4776,
      "reys": 4777,
      "ises": 4778,
      "istered": 4779,
      "Ġoffer": 4780,
      "aters": 4781,
      "eding": 4782,
      "itud": 4783,
      "Ġban": 4784,
      "Ġbas": 4785,
      "Ġbold": 4786,
      "Ġbitter": 4787,
      "Ġbottle": 4788,
      "Ġfain": 4789,
      "Ġfired": 4790,
      "Ġfitted": 4791,
      "Ġfool": 4792,
      "Ġfashion": 4793,
      "Ġcool": 4794,
      "Ġhuge": 4795,
      "oust": 4796,
      "Ġmoust": 4797,
      "Ġpip": 4798,
      "Ġinch": 4799,
      "Ġinsect": 4800,
      "Ġtopic": 4801,
      "anic": 4802,
      "Ġdot": 4803,
      "Ġdance": 4804,
      "Ġdwell": 4805,
      "lls": 4806,
      "lly": 4807,
      "lling": 4808,
      "Ġthrow": 4809,
      "Ġlone": 4810,
      "Ġnative": 4811,
      "Ġbending": 4812,
      "Ġhem": 4813,
      "Ġgently": 4814,
      "Ġgathered": 4815,
      "enth": 4816,
      "omicron": 4817,
      "alace": 4818,
      "Ġstur": 4819,
      "rian": 4820,
      "riet": 4821,
      "riel": 4822,
      "idently": 4823,
      "amps": 4824,
      "Ġask": 4825,
      "ĠPG": 4826,
      "ĠPom": 4827,
      "tera": 4828,
      "icholas": 4829,
      "Ġsuit": 4830,
      "Ġsem": 4831,
      "Ġconvers": 4832,
      "ulf": 4833,
      "ĠCity": 4834,
      "ĠCount": 4835,
      "ĠCross": 4836,
      "ĠCatesby": 4837,
      "Ġshines": 4838,
      "elcome": 4839,
      "Ġvent": 4840,
      "Ġmoving": 4841,
      "ĠMap": 4842,
      "ĠMount": 4843,
      "ĠManger": 4844,
      "estown": 4845,
      "ĠBE": 4846,
      "ĠBull": 4847,
      "ĠBRE": 4848,
      "......": 4849,
      "Ġproof": 4850,
      "ouses": 4851,
      "umn": 4852,
      "Ġdecor": 4853,
      "ĠFish": 4854,
      "Ġaltern": 4855,
      "Ġchap": 4856,
      "Ġwholly": 4857,
      "Ġweeks": 4858,
      "Ġmeant": 4859,
      "Ġdisg": 4860,
      "These": 4861,
      "Ġouter": 4862,
      "ĠRiver": 4863,
      "ĠRube": 4864,
      "ĠRogers": 4865,
      "Ġanywhere": 4866,
      "Ġune": 4867,
      "Ġunable": 4868,
      "Ġliqu": 4869,
      "Ġliber": 4870,
      "abor": 4871,
      "gles": 4872,
      "odiac": 4873,
      "Ġcloud": 4874,
      "auri": 4875,
      "phia": 4876,
      "Ġgrass": 4877,
      "Ġgovern": 4878,
      "ording": 4879,
      "Ġamid": 4880,
      "Ġreputation": 4881,
      "Ġunderstood": 4882,
      "Ġscent": 4883,
      "Ġscout": 4884,
      "ĠVI": 4885,
      "ĠVilla": 4886,
      "Ġearnest": 4887,
      "rank": 4888,
      "Ġentrench": 4889,
      "Ġentering": 4890,
      "Ġslipped": 4891,
      "Ġknows": 4892,
      "Ġbegun": 4893,
      "ĠTHAT": 4894,
      "Ġ41": 4895,
      "ĠChris": 4896,
      "ĠCharl": 4897,
      "Ġrecently": 4898,
      "Ġreceipt": 4899,
      "Ġrequest": 4900,
      "Ġbrown": 4901,
      "Ġ178": 4902,
      "Ġphotograph": 4903,
      "Ġfiner": 4904,
      "Ġfinal": 4905,
      "Ġadvice": 4906,
      "Ġchest": 4907,
      "Ġnorthern": 4908,
      "ĠSeptember": 4909,
      "Ġengines": 4910,
      "Ġgroups": 4911,
      "Ġwaited": 4912,
      "Ġcontains": 4913,
      "Ġarray": 4914,
      "Ġcareful": 4915,
      "Ġnecessarily": 4916,
      "pica": 4917,
      "Ġhappy": 4918,
      "Ġremaining": 4919,
      "Ġbegins": 4920,
      "Ġconsiderably": 4921,
      "Ġlanded": 4922,
      "Ġopening": 4923,
      "Ġprocesses": 4924,
      "Ġvaluable": 4925,
      "Ġdriving": 4926,
      "Ġevidence": 4927,
      "Ġorganic": 4928,
      "Ġescaped": 4929,
      "Ġcrater": 4930,
      "volution": 4931,
      "Ġsouthwest": 4932,
      "Ġhurt": 4933,
      "Ġservant": 4934,
      "THER": 4935,
      "Ġmeaning": 4936,
      "Ġastronomers": 4937,
      "Ġchanged": 4938,
      "Ġprevious": 4939,
      "While": 4940,
      "Ġvacua": 4941,
      "Ġroyalty": 4942,
      "ĠAllerton": 4943,
      "ĠHowe": 4944,
      "Ġspecies": 4945,
      "____": 4946,
      "Ġfurnish": 4947,
      "Ġmemory": 4948,
      "Ġmembers": 4949,
      "Ġcrossed": 4950,
      "Ġwidest": 4951,
      "Ġdetermine": 4952,
      "ĠNOT": 4953,
      "Ġabsence": 4954,
      "Ġreferences": 4955,
      "Ġsurrounded": 4956,
      "Ġsatisf": 4957,
      "Ġnatural": 4958,
      "Ġshadows": 4959,
      "Ġextreme": 4960,
      "Ġadventure": 4961,
      "Ġpreserved": 4962,
      "Ġbreath": 4963,
      "Ġinnoc": 4964,
      "ĠAbout": 4965,
      "Ġcigar": 4966,
      "ĠHighlands": 4967,
      "Ġleaning": 4968,
      "Ġjourney": 4969,
      "Ġdescended": 4970,
      "Ġoutlines": 4971,
      "phiuch": 4972,
      "Ġafraid": 4973,
      "Ġtissue": 4974,
      "adelphia": 4975,
      "Ġilluminated": 4976,
      "ĠPhiladelphia": 4977,
      "liged": 4978,
      "Ġglobe": 4979,
      "Ġsuperintendent": 4980,
      "Ġburied": 4981,
      "Ġdazz": 4982,
      "ographer": 4983,
      "ĠProfessor": 4984,
      "ĠRubein": 4985,
      "ĠCharlestown": 4986,
      "'d": 4987,
      "21": 4988,
      "50": 4989,
      "92": 4990,
      "After": 4991,
      "CII": 4992,
      "Do": 4993,
      "From": 4994,
      "OSE": 4995,
      "Plain": 4996,
      "TS": 4997,
      "ULL": 4998,
      "bola": 4999,
      "crom": 5000,
      "dish": 5001,
      "greg": 5002,
      "iest": 5003,
      "iqu": 5004,
      "ially": 5005,
      "looking": 5006,
      "oid": 5007,
      "oir": 5008,
      "over": 5009,
      "pen": 5010,
      "pes": 5011,
      "pse": 5012,
      "ror": 5013,
      "sis": 5014,
      "yright": 5015,
      "Ġ#": 5016,
      "Ġtur": 5017,
      "Ġax": 5018,
      "Ġaper": 5019,
      "inction": 5020,
      "Ġtheory": 5021,
      "Ġoun": 5022,
      "era": 5023,
      "Ġways": 5024,
      "Ġwolf": 5025,
      "Ġsin": 5026,
      "reci": 5027,
      "Ġbow": 5028,
      "Ġfer": 5029,
      "Ġfancy": 5030,
      "Ġcrim": 5031,
      "Ġcoun": 5032,
      "Ġhom": 5033,
      "Ġhun": 5034,
      "arth": 5035,
      "Ġmiss": 5036,
      "orse": 5037,
      "Ġpist": 5038,
      "Ġprim": 5039,
      "Ġpride": 5040,
      "Ġinex": 5041,
      "ane": 5042,
      "angled": 5043,
      "asc": 5044,
      "Ġlion": 5045,
      "ics": 5046,
      "leg": 5047,
      "Ġbears": 5048,
      "Ġbends": 5049,
      "stre": 5050,
      "Ġgather": 5051,
      "Ġgrew": 5052,
      "oms": 5053,
      "alile": 5054,
      "Ġstout": 5055,
      "Ġstorm": 5056,
      "Ġstuff": 5057,
      "Ġwithdra": 5058,
      "ĠTr": 5059,
      "ĠTw": 5060,
      "ird": 5061,
      "Ġwaste": 5062,
      "Ġyes": 5063,
      "Ġyield": 5064,
      "ĠAuriga": 5065,
      "Ġanaly": 5066,
      "ĠSagitt": 5067,
      "ĠHugh": 5068,
      "Ġnoted": 5069,
      "Ġnotwithstanding": 5070,
      "ulus": 5071,
      "raced": 5072,
      "ĠCor": 5073,
      "ĠCast": 5074,
      "ĠCode": 5075,
      "Ġshut": 5076,
      "Ġvary": 5077,
      "Ġvirt": 5078,
      "Ġvillage": 5079,
      "ĠMir": 5080,
      "ĠBooetes": 5081,
      "ersed": 5082,
      "ols": 5083,
      "opyright": 5084,
      "ĠWard": 5085,
      "Ġdeck": 5086,
      "Ġru": 5087,
      "Ġrude": 5088,
      "ĠLook": 5089,
      "ĠLanguage": 5090,
      "Ġspread": 5091,
      "ĠNature": 5092,
      "ighed": 5093,
      "Ġweather": 5094,
      "agger": 5095,
      "Ġaroused": 5096,
      "ĠON": 5097,
      "ĠOTHER": 5098,
      "ĠDog": 5099,
      "ĠDav": 5100,
      "Ġdism": 5101,
      "ĠEX": 5102,
      "ĠEpsilon": 5103,
      "Ġobliged": 5104,
      "Ġplung": 5105,
      "Ġcompon": 5106,
      "Ġcomplic": 5107,
      "ĠRome": 5108,
      "ĠRoyalty": 5109,
      "udden": 5110,
      "plied": 5111,
      "Ġappar": 5112,
      "Ġrot": 5113,
      "Ġliability": 5114,
      "Ġotherwise": 5115,
      "Ġflight": 5116,
      "Ġclos": 5117,
      "Ġclusters": 5118,
      "irect": 5119,
      "Ġglad": 5120,
      "Ġmyst": 5121,
      "Ġgrate": 5122,
      "anged": 5123,
      "angle": 5124,
      "Ġ29": 5125,
      "izen": 5126,
      "Ġcommunic": 5127,
      "escription": 5128,
      "Ġafternoon": 5129,
      "Ġreply": 5130,
      "Ġscattered": 5131,
      "Ġresist": 5132,
      "Ġresolved": 5133,
      "Ġobserve": 5134,
      "igned": 5135,
      "Ġ34": 5136,
      "Ġ38": 5137,
      "aws": 5138,
      "Ġconsult": 5139,
      "Ġlighted": 5140,
      "Ġexpenses": 5141,
      "Ġthoughts": 5142,
      "Ġemotion": 5143,
      "Ġsurvey": 5144,
      "Ġheads": 5145,
      "Ġelectronically": 5146,
      "Ġmillim": 5147,
      "Ġfully": 5148,
      "Ġbackground": 5149,
      "Ġdaylight": 5150,
      "ĠAlb": 5151,
      "Ġuseful": 5152,
      "Ġpurch": 5153,
      "Ġeffected": 5154,
      "Ġextra": 5155,
      "Ġsentence": 5156,
      "Ġnights": 5157,
      "archus": 5158,
      "Ġletters": 5159,
      "Ġfourteen": 5160,
      "Ġfinished": 5161,
      "enebola": 5162,
      "Ġconfidence": 5163,
      "Ġcheer": 5164,
      "Ġreddish": 5165,
      "Ġassault": 5166,
      "Ġdepth": 5167,
      "TIES": 5168,
      "Ġfacts": 5169,
      "Ġsevere": 5170,
      "apped": 5171,
      "ĠRevolution": 5172,
      "ĠIsland": 5173,
      "Ġtrem": 5174,
      "Ġillustr": 5175,
      "Ġcorrug": 5176,
      "Ġdrawing": 5177,
      "Ġclosely": 5178,
      "Ġprominently": 5179,
      "Ġshorts": 5180,
      "Ġtransc": 5181,
      "Ġneeded": 5182,
      "Ġhastened": 5183,
      "Ġ129": 5184,
      "Ġruns": 5185,
      "]).": 5186,
      "Ġcompleted": 5187,
      "ĠCapricorn": 5188,
      "Ġremainder": 5189,
      "Ġproperly": 5190,
      "Ġsuccessful": 5191,
      "Ġtemporary": 5192,
      "Ġsignific": 5193,
      "Ġroller": 5194,
      "Ġgolden": 5195,
      "Ġimagine": 5196,
      "Ġstudent": 5197,
      "while": 5198,
      "Ġawa": 5199,
      "ĠWhile": 5200,
      "Ġexception": 5201,
      "Ġincrease": 5202,
      "Ġfootst": 5203,
      "Ġbird": 5204,
      "Ġestimate": 5205,
      "Ġmurder": 5206,
      "aiden": 5207,
      "Ġdrink": 5208,
      "Ġattractive": 5209,
      "Ġsplendor": 5210,
      "Ġspecific": 5211,
      "Ġspecified": 5212,
      "Ġlegal": 5213,
      "Ġexhausted": 5214,
      "Ġduke": 5215,
      "Ġcomputer": 5216,
      "Ġcomputers": 5217,
      "Ġhills": 5218,
      "ĠExcept": 5219,
      "Ġprisoners": 5220,
      "Ġlieu": 5221,
      "Ġgaze": 5222,
      "Ġreaching": 5223,
      "Ġannoy": 5224,
      "Ġduties": 5225,
      "Ġdamages": 5226,
      "ĠLIAB": 5227,
      "Ġbreastwork": 5228,
      "Ġvessels": 5229,
      "Ġaccompanied": 5230,
      "Ġdisclaimer": 5231,
      "ĠWARRANTY": 5232,
      "ĠWARRANTIES": 5233,
      "Ġtender": 5234,
      "Ġinferior": 5235,
      "Ġachieve": 5236,
      "Ġwonders": 5237,
      "Ġjoined": 5238,
      "Ġingen": 5239,
      "Ġstatement": 5240,
      "Ġascertain": 5241,
      "ĠHyades": 5242,
      "Ġsuspic": 5243,
      "Ġconstructed": 5244,
      "Ġcoward": 5245,
      "Ġmusket": 5246,
      "Ġsurrounding": 5247,
      "Ġtreatment": 5248,
      "Ġdelicate": 5249,
      "ĠAGREE": 5250,
      "ĠDAMAGES": 5251,
      "Ġhitherto": 5252,
      "ĠASCII": 5253,
      "ĠColonials": 5254,
      "Ġthoroughly": 5255,
      "ĠAntares": 5256,
      "ĠJanuary": 5257,
      "ĠHumphreys": 5258,
      "Ġempty": 5259,
      "Ġsympath": 5260,
      "Putnam": 5261,
      "Ġimpulse": 5262,
      "ĠVanilla": 5263,
      "IRECT": 5264,
      "Ġsoutheast": 5265,
      "Ġsturdy": 5266,
      "ĠBREACH": 5267,
      "alileo": 5268,
      "uddenly": 5269,
      "!--": 5270,
      "._": 5271,
      "25": 5272,
      "All": 5273,
      "BUT": 5274,
      "Herr": 5275,
      "Is": 5276,
      "IES": 5277,
      "King": 5278,
      "OP": 5279,
      "SS": 5280,
      "];": 5281,
      "bie": 5282,
      "back": 5283,
      "cord": 5284,
      "called": 5285,
      "fit": 5286,
      "gol": 5287,
      "hus": 5288,
      "house": 5289,
      "iot": 5290,
      "mn": 5291,
      "mu": 5292,
      "och": 5293,
      "pet": 5294,
      "rise": 5295,
      "sen": 5296,
      "tog": 5297,
      "uf": 5298,
      "ufact": 5299,
      "Ġ+": 5300,
      "Ġta": 5301,
      "Ġtort": 5302,
      "Ġtull": 5303,
      "Ġtask": 5304,
      "iny": 5305,
      "erable": 5306,
      "Ġwilt": 5307,
      "issi": 5308,
      "isible": 5309,
      "atri": 5310,
      "enity": 5311,
      "Ġbread": 5312,
      "Ġfate": 5313,
      "Ġfile": 5314,
      "Ġfrown": 5315,
      "Ġfurious": 5316,
      "Ġcree": 5317,
      "Ġcult": 5318,
      "Ġhide": 5319,
      "Ġhouses": 5320,
      "aris": 5321,
      "aries": 5322,
      "Ġmix": 5323,
      "orrow": 5324,
      "ese": 5325,
      "esides": 5326,
      "Ġpred": 5327,
      "anus": 5328,
      "ania": 5329,
      "Ġdried": 5330,
      "Ġdensity": 5331,
      "Ġthine": 5332,
      "Ġthrew": 5333,
      "Ġthrown": 5334,
      "Ġlanguage": 5335,
      "ician": 5336,
      "Ġeat": 5337,
      "aduke": 5338,
      "otit": 5339,
      "Ġstay": 5340,
      "Ġstated": 5341,
      "Ġstared": 5342,
      "Ġstories": 5343,
      "Ġisland": 5344,
      "ether": 5345,
      "Ġwashing": 5346,
      "ĠAber": 5347,
      "ĠApri": 5348,
      "Ġanne": 5349,
      "ĠSale": 5350,
      "ĠSpica": 5351,
      "illery": 5352,
      "ĠHavana": 5353,
      "Ġsup": 5354,
      "Ġsending": 5355,
      "ulating": 5356,
      "rab": 5357,
      "ppi": 5358,
      "ĠCH": 5359,
      "ĠCorn": 5360,
      "Ġships": 5361,
      "kee": 5362,
      "Ġmoist": 5363,
      "ĠMed": 5364,
      "ĠMad": 5365,
      "ĠMag": 5366,
      "ĠBoard": 5367,
      "ĠBurg": 5368,
      "olic": 5369,
      "Ġstaring": 5370,
      "aced": 5371,
      "acious": 5372,
      "elling": 5373,
      "umes": 5374,
      "umpt": 5375,
      "arden": 5376,
      "ĠWest": 5377,
      "ĠWhere": 5378,
      "Ġalpha": 5379,
      "Ġrange": 5380,
      "ĠLit": 5381,
      "ĠLee": 5382,
      "Ġchin": 5383,
      "ĠNu": 5384,
      "ĠNear": 5385,
      "ĠNicholas": 5386,
      "Ġmanufact": 5387,
      "Ġarise": 5388,
      "ĠEvery": 5389,
      "Ġnovel": 5390,
      "Ġobsc": 5391,
      "Ġplains": 5392,
      "Ġenable": 5393,
      "cipl": 5394,
      "Ġlevel": 5395,
      "plor": 5396,
      "Ġrode": 5397,
      "abb": 5398,
      "gling": 5399,
      "Ġimper": 5400,
      "Ġflick": 5401,
      "Ġtruly": 5402,
      "cles": 5403,
      "cket": 5404,
      "Ġglow": 5405,
      "Ġdistur": 5406,
      "Ġquiver": 5407,
      "Ġquality": 5408,
      "Ġquiet": 5409,
      "Ġqualities": 5410,
      "Ġknight": 5411,
      "Ġsmiled": 5412,
      "Ġgras": 5413,
      "Ġgranted": 5414,
      "ribed": 5415,
      "Ġourselves": 5416,
      "ĠUse": 5417,
      "Ġformats": 5418,
      "Ġpreced": 5419,
      "Ġoverwhe": 5420,
      "Ġconstit": 5421,
      "soever": 5422,
      "Ġwhatsoever": 5423,
      "Ġoffers": 5424,
      "ruff": 5425,
      "ĠStill": 5426,
      "Ġexpressed": 5427,
      "Ġregistered": 5428,
      "Ġenthus": 5429,
      "Ġproud": 5430,
      "Ġemail": 5431,
      "ensed": 5432,
      "Ġreading": 5433,
      "Ġheadquarters": 5434,
      "Ġowns": 5435,
      "Ġcoat": 5436,
      "Ġ52": 5437,
      "Ġsetting": 5438,
      "Ġglasses": 5439,
      "Ġinclined": 5440,
      "cyone": 5441,
      "Ġdetect": 5442,
      "Ġmaps": 5443,
      "rosc": 5444,
      "Ġplanetary": 5445,
      "Ġsubtle": 5446,
      "Ġbrief": 5447,
      "Ġ70": 5448,
      "Ġ79": 5449,
      "Ġ98": 5450,
      "Ġhighly": 5451,
      "Ġforts": 5452,
      "Ġswamp": 5453,
      "Ġmarks": 5454,
      "Ġmonster": 5455,
      "Ġrestrict": 5456,
      "pleas": 5457,
      "Ġobservers": 5458,
      "Ġgetting": 5459,
      "ĠRecomm": 5460,
      "Ġtrave": 5461,
      "ĠFrenchman": 5462,
      "Ġinfect": 5463,
      "Ġafford": 5464,
      "Ġputting": 5465,
      "Ġsuffer": 5466,
      "Ġpromoting": 5467,
      "Ġartillery": 5468,
      "armaduke": 5469,
      "Ġdescribe": 5470,
      "Ġcareer": 5471,
      "Ġhearts": 5472,
      "Ġsystems": 5473,
      "Ġmainly": 5474,
      "Ġinsp": 5475,
      "Ġrelative": 5476,
      "ĠOnly": 5477,
      "Ġpurposes": 5478,
      "Ġlands": 5479,
      "Ġcalm": 5480,
      "Ġdevoted": 5481,
      "Ġpleasant": 5482,
      "ounced": 5483,
      "Ġdisplayed": 5484,
      "Ġimagined": 5485,
      "Ġdrive": 5486,
      "Ġevidently": 5487,
      "Ġrespects": 5488,
      "Ġorganized": 5489,
      "ILL": 5490,
      "Ġfloating": 5491,
      "Ġincreased": 5492,
      "Ġoccasionally": 5493,
      "Ġpurified": 5494,
      "Ġpurifiers": 5495,
      "Ġhonor": 5496,
      "Ġdogs": 5497,
      "ĠProvincial": 5498,
      "Ġcaptive": 5499,
      "Ġastronomy": 5500,
      "Ġdemonst": 5501,
      "Ġrecognize": 5502,
      "Ġroyal": 5503,
      "Ġattracted": 5504,
      "Ġpotential": 5505,
      "Ġgrowled": 5506,
      "Ġoccurred": 5507,
      "Ġforests": 5508,
      "Ġgazing": 5509,
      "Ġneglect": 5510,
      "Ġreflected": 5511,
      "Ġidentify": 5512,
      "Ġevents": 5513,
      "Ġdistinguish": 5514,
      "Ġoccupied": 5515,
      "Ġadmiration": 5516,
      "Ġfailed": 5517,
      "Ġhyp": 5518,
      "Ġcombined": 5519,
      "Ġacquaint": 5520,
      "ĠMississi": 5521,
      "Ġdevelopment": 5522,
      "Ġregulars": 5523,
      "Ġdeclared": 5524,
      "Ġglimpse": 5525,
      "ĠDISTRI": 5526,
      "Ġaccomplish": 5527,
      "Ġaccomplished": 5528,
      "Ġimprove": 5529,
      "Ġframework": 5530,
      "ienced": 5531,
      "Ġbolting": 5532,
      "Ġconfirm": 5533,
      "Ġsolemn": 5534,
      "Ġpossibly": 5535,
      "Ġmathem": 5536,
      "Ġlaugh": 5537,
      "Ġpromptly": 5538,
      "Ġprosper": 5539,
      "Ġinvestig": 5540,
      "OOK": 5541,
      "Ġstretched": 5542,
      "ĠCetus": 5543,
      "Ġquestions": 5544,
      "Ġillumination": 5545,
      "ĠCepheus": 5546,
      "Ġexplosion": 5547,
      "Ġorganisms": 5548,
      "Ġpipe": 5549,
      "Ġinnocent": 5550,
      "crombie": 5551,
      "ĠDavid": 5552,
      "Ġcloser": 5553,
      "together": 5554,
      "ĠAbercrombie": 5555,
      "ĠApril": 5556,
      "ĠSalem": 5557,
      "Ġoverwhel": 5558,
      "Ġenthusi": 5559,
      "Ġrestrictions": 5560,
      "ĠRecommend": 5561,
      "ĠMississippi": 5562,
      "ĠDISTRIBUT": 5563,
      "17": 5564,
      "24": 5565,
      "33": 5566,
      "34": 5567,
      "Ar": 5568,
      "Be": 5569,
      "BOOK": 5570,
      "Hub": 5571,
      "Mar": 5572,
      "Now": 5573,
      "PR": 5574,
      "Please": 5575,
      "Sibyll": 5576,
      "UD": 5577,
      "UR": 5578,
      "Washington": 5579,
      "].": 5580,
      "ael": 5581,
      "bl": 5582,
      "bor": 5583,
      "bits": 5584,
      "burg": 5585,
      "cher": 5586,
      "col": 5587,
      "cont": 5588,
      "dro": 5589,
      "fast": 5590,
      "fluence": 5591,
      "hand": 5592,
      "iber": 5593,
      "ique": 5594,
      "jo": 5595,
      "ker": 5596,
      "lt": 5597,
      "ma": 5598,
      "ners": 5599,
      "ncy": 5600,
      "ois": 5601,
      "oor": 5602,
      "oved": 5603,
      "pie": 5604,
      "rant": 5605,
      "rison": 5606,
      "she": 5607,
      "sit": 5608,
      "ses": 5609,
      "sHub": 5610,
      "was": 5611,
      "wall": 5612,
      "word": 5613,
      "Ġx": 5614,
      "Ġtables": 5615,
      "hend": 5616,
      "inus": 5617,
      "erk": 5618,
      "eren": 5619,
      "Ġwis": 5620,
      "Ġwear": 5621,
      "Ġwelcome": 5622,
      "Ġsand": 5623,
      "Ġsigh": 5624,
      "oned": 5625,
      "enith": 5626,
      "engers": 5627,
      "Ġbit": 5628,
      "Ġbac": 5629,
      "Ġbos": 5630,
      "Ġfra": 5631,
      "Ġfil": 5632,
      "Ġfood": 5633,
      "Ġfix": 5634,
      "Ġciv": 5635,
      "Ġcry": 5636,
      "Ġcement": 5637,
      "Ġmad": 5638,
      "Ġmaiden": 5639,
      "ington": 5640,
      "Ġinner": 5641,
      "Ġdig": 5642,
      "Ġthreat": 5643,
      "Ġlink": 5644,
      "Ġloud": 5645,
      "Ġlumin": 5646,
      "Ġluck": 5647,
      "rother": 5648,
      "icle": 5649,
      "ione": 5650,
      "Ġep": 5651,
      "Ġhence": 5652,
      "Ġgain": 5653,
      "Ġrecept": 5654,
      "Ġreels": 5655,
      "Ġrecover": 5656,
      "lyze": 5657,
      "oman": 5658,
      "alis": 5659,
      "Ġstup": 5660,
      "see": 5661,
      "rill": 5662,
      "ĠTerms": 5663,
      "ĠTools": 5664,
      "Ġforced": 5665,
      "Ġult": 5666,
      "ĠIM": 5667,
      "Ġash": 5668,
      "Ġasse": 5669,
      "Ġasking": 5670,
      "Ġasleep": 5671,
      "ĠPO": 5672,
      "ĠPAR": 5673,
      "char": 5674,
      "ĠAries": 5675,
      "ĠSun": 5676,
      "ĠHugg": 5677,
      "Ġhaz": 5678,
      "Ġseas": 5679,
      "Ġseated": 5680,
      "Ġconver": 5681,
      "Ġconqu": 5682,
      "Ġconven": 5683,
      "iffer": 5684,
      "ĠGra": 5685,
      "ĠGalileo": 5686,
      "ĠGotit": 5687,
      "thou": 5688,
      "ĠCata": 5689,
      "ĠCORE": 5690,
      "ĠCygn": 5691,
      "Ġsho": 5692,
      "ushing": 5693,
      "Ġvic": 5694,
      "Ġvir": 5695,
      "Ġvoy": 5696,
      "ĠMan": 5697,
      "ĠMoon": 5698,
      "ĠMarmaduke": 5699,
      "esty": 5700,
      "ĠBl": 5701,
      "ĠBar": 5702,
      "ĠBun": 5703,
      "ĠBear": 5704,
      "ĠBoth": 5705,
      "ĠBesides": 5706,
      "Ġneither": 5707,
      "Ġstarting": 5708,
      ".......": 5709,
      "Ġprove": 5710,
      "apan": 5711,
      "astic": 5712,
      "ĠFULL": 5713,
      "Ġaltogether": 5714,
      "Ġrule": 5715,
      "Ġupward": 5716,
      "ĠLIC": 5717,
      "Ġspent": 5718,
      "Ġchain": 5719,
      "ĠNic": 5720,
      "ĠNos": 5721,
      "ĠNath": 5722,
      "urely": 5723,
      "Ġintention": 5724,
      "agsHub": 5725,
      "Ġarch": 5726,
      "ĠOther": 5727,
      "ĠOphiuch": 5728,
      "ĠDu": 5729,
      "ĠDis": 5730,
      "ĠDuke": 5731,
      "ĠDelta": 5732,
      "ĠDipper": 5733,
      "ĠDenebola": 5734,
      "ĠDagsHub": 5735,
      "Ġaband": 5736,
      "Ġdoc": 5737,
      "Ġdoctor": 5738,
      "Ġdiscipl": 5739,
      "ĠEast": 5740,
      "ĠEBOOK": 5741,
      "Ġnobody": 5742,
      "Ġobst": 5743,
      "Ġplat": 5744,
      "Ġplans": 5745,
      "Ġplaying": 5746,
      "inds": 5747,
      "inded": 5748,
      "inding": 5749,
      "Ġages": 5750,
      "Ġcompl": 5751,
      "Ġcompressed": 5752,
      "Ġperman": 5753,
      "ishment": 5754,
      "Ġlever": 5755,
      "pler": 5756,
      "pless": 5757,
      "Ġrock": 5758,
      "abric": 5759,
      "Ġflood": 5760,
      "Ġflushed": 5761,
      "Ġflowers": 5762,
      "Ġclouds": 5763,
      "Ġtrain": 5764,
      "Ġglorious": 5765,
      "Ġmytholog": 5766,
      "Ġ26": 5767,
      "ordinary": 5768,
      "Ġlooks": 5769,
      "Ġhandle": 5770,
      "Ġammon": 5771,
      "ĠInfluence": 5772,
      "Ġconstantly": 5773,
      "Ġconstruction": 5774,
      "ĠThom": 5775,
      "Ġinterrupt": 5776,
      "Ġscal": 5777,
      "Ġresc": 5778,
      "Ġthroughout": 5779,
      "Ġ36": 5780,
      "Ġearl": 5781,
      "Ġsunsh": 5782,
      "Ġsunlight": 5783,
      "Ġexpend": 5784,
      "Ġpeace": 5785,
      "Ġregions": 5786,
      "Ġslain": 5787,
      "Ġrail": 5788,
      "Ġacid": 5789,
      "ĠArist": 5790,
      "uries": 5791,
      "Ġcharm": 5792,
      "Ġappearing": 5793,
      "Ġmoons": 5794,
      "ibra": 5795,
      "ibli": 5796,
      "ĠChar": 5797,
      "ĠAlcyone": 5798,
      "END": 5799,
      "ENSE": 5800,
      "Ġends": 5801,
      "Ġdefinite": 5802,
      "Ġbrightest": 5803,
      "Ġextract": 5804,
      "Ġextended": 5805,
      "Ġfinding": 5806,
      "Ġmidst": 5807,
      "Ġnumbers": 5808,
      "Ġ176": 5809,
      ",--\"": 5810,
      "Ġsilk": 5811,
      "ifications": 5812,
      "Ġ64": 5813,
      "Ġcapital": 5814,
      "Ġbreaking": 5815,
      "Ġbrig": 5816,
      "Ġagreed": 5817,
      "Ġadvancing": 5818,
      "Ġreturns": 5819,
      "Ġconfess": 5820,
      "Ġcheap": 5821,
      "herent": 5822,
      "Ġengag": 5823,
      "Ġdarkness": 5824,
      "Ġboat": 5825,
      "TIVE": 5826,
      "Ġrestless": 5827,
      "ĠWarwick": 5828,
      "Ġtrace": 5829,
      "Ġtreated": 5830,
      "Ġaffected": 5831,
      "Ġinvisible": 5832,
      "Ġsuffered": 5833,
      "Ġpossessing": 5834,
      "www": 5835,
      "Ġgrace": 5836,
      "Ġdirected": 5837,
      "Ġguest": 5838,
      "Ġ130": 5839,
      "Ġcollabor": 5840,
      "Ġpatient": 5841,
      "Ġ116": 5842,
      "Ġvalues": 5843,
      "Ġcutting": 5844,
      "Ġfavour": 5845,
      "Ġfeelings": 5846,
      "exington": 5847,
      "Ġimaginary": 5848,
      "Ġdestruction": 5849,
      "Ġstudy": 5850,
      "Ġindicated": 5851,
      "ĠConnected": 5852,
      "Ġsummon": 5853,
      "Ġmeasured": 5854,
      "Ġperiodic": 5855,
      "Ġindividuals": 5856,
      "Ġneighbors": 5857,
      "Ġwalk": 5858,
      "Ġengineer": 5859,
      "ĠXV": 5860,
      "ĠXX": 5861,
      "ĠCancer": 5862,
      "Ġmistaken": 5863,
      "Ġbirth": 5864,
      "Ġfallen": 5865,
      "Ġsuggest": 5866,
      "Ġexcited": 5867,
      "Ġzenith": 5868,
      "Ġwooden": 5869,
      "Ġdrunk": 5870,
      "Ġresembling": 5871,
      "Ġhistor": 5872,
      "Ġcomparison": 5873,
      "Ġconcerned": 5874,
      "Ġgrowing": 5875,
      "ĠSerenity": 5876,
      "ĠHowever": 5877,
      "Ġvolunteer": 5878,
      "Ġlabor": 5879,
      "ĠExplor": 5880,
      "Ġsmoking": 5881,
      "ographic": 5882,
      "Ġgazed": 5883,
      "Ġnegro": 5884,
      "Ġtemperament": 5885,
      "Ġmechanically": 5886,
      "Ġneighboring": 5887,
      "Ġpiece": 5888,
      "Ġsurely": 5889,
      "Ġacquired": 5890,
      "Ġconvinced": 5891,
      "ĠVirgin": 5892,
      "isphere": 5893,
      "Ġaccompanying": 5894,
      "Ġbiographer": 5895,
      "Ġintroduced": 5896,
      "Ġpreserve": 5897,
      "Ġninet": 5898,
      "Ġfierce": 5899,
      "ĠScienceCast": 5900,
      "Ġchloride": 5901,
      "Ġconfirmed": 5902,
      "Ġachieved": 5903,
      "Ġgleam": 5904,
      "ĠServia": 5905,
      "Ġvanished": 5906,
      "Ġpursuit": 5907,
      "egasus": 5908,
      "Ġprecipitate": 5909,
      "Ġmotions": 5910,
      "Ġgloomy": 5911,
      "Ġnervous": 5912,
      "Ġspoken": 5913,
      "Ġadopted": 5914,
      "Ġsubsequent": 5915,
      "Ġboiler": 5916,
      "IGHT": 5917,
      "Sea": 5918,
      "ĠRedistribut": 5919,
      "Ġsketch": 5920,
      "Ġignorance": 5921,
      "ĠPrince": 5922,
      "ĠSTARS": 5923,
      "Ġoptical": 5924,
      "Ġdaily": 5925,
      "Ġestablished": 5926,
      "Ġcaution": 5927,
      "ĠSmart": 5928,
      "ĠRegulus": 5929,
      "Ġbarrels": 5930,
      "ĠCanada": 5931,
      "Ġexercise": 5932,
      "itudes": 5933,
      "Ġfainter": 5934,
      "Ġlonely": 5935,
      "ĠMountains": 5936,
      "Ġaperture": 5937,
      "Ġapparatus": 5938,
      "irectly": 5939,
      "Ġfootsteps": 5940,
      "Ġsympathy": 5941,
      "ĠalphaXiv": 5942,
      "ĠLitmaps": 5943,
      "Ġconfirmation": 5944,
      "Ġbacill": 5945,
      "lyzeX": 5946,
      "ĠHugging": 5947,
      "ĠCatalyzeX": 5948,
      "ĠLICENSE": 5949,
      "Ġpermanent": 5950,
      "Ġmythological": 5951,
      "ibliographic": 5952,
      "Ġcollaborators": 5953,
      "ĠExplorer": 5954,
      "',": 5955,
      ".[": 5956,
      "27": 5957,
      "39": 5958,
      "44": 5959,
      "BE": 5960,
      "CL": 5961,
      "Cap": 5962,
      "FIC": 5963,
      "Hemmings": 5964,
      "IED": 5965,
      "James": 5966,
      "Le": 5967,
      "Most": 5968,
      "NER": 5969,
      "OLD": 5970,
      "Sub": 5971,
      "TAB": 5972,
      "VEN": 5973,
      "_--": 5974,
      "aun": 5975,
      "aure": 5976,
      "bre": 5977,
      "bur": 5978,
      "bear": 5979,
      "bles": 5980,
      "board": 5981,
      "cil": 5982,
      "cest": 5983,
      "ded": 5984,
      "ding": 5985,
      "eu": 5986,
      "fret": 5987,
      "general": 5988,
      "ggling": 5989,
      "hib": 5990,
      "iel": 5991,
      "iela": 5992,
      "ka": 5993,
      "min": 5994,
      "net": 5995,
      "ole": 5996,
      "port": 5997,
      "rion": 5998,
      "uit": 5999,
      "uel": 6000,
      "uced": 6001,
      "uzz": 6002,
      "vi": 6003,
      "zing": 6004,
      "Ġid": 6005,
      "Ġtight": 6006,
      "Ġtint": 6007,
      "Ġtub": 6008,
      "Ġtempt": 6009,
      "inations": 6010,
      "Ġwand": 6011,
      "Ġsac": 6012,
      "Ġsour": 6013,
      "Ġsite": 6014,
      "Ġsons": 6015,
      "Ġsorts": 6016,
      "Ġscientific": 6017,
      "reed": 6018,
      "render": 6019,
      "enger": 6020,
      "Ġbin": 6021,
      "Ġbase": 6022,
      "Ġbinary": 6023,
      "Ġbubb": 6024,
      "Ġbaker": 6025,
      "Ġfal": 6026,
      "Ġfame": 6027,
      "Ġfish": 6028,
      "Ġfond": 6029,
      "Ġfatal": 6030,
      "Ġfabric": 6031,
      "Ġcat": 6032,
      "Ġcit": 6033,
      "Ġcant": 6034,
      "Ġcuri": 6035,
      "Ġcatal": 6036,
      "Ġhollow": 6037,
      "Ġhopes": 6038,
      "outhern": 6039,
      "armed": 6040,
      "Ġmild": 6041,
      "Ġmule": 6042,
      "orter": 6043,
      "orous": 6044,
      "Ġpages": 6045,
      "Ġpairs": 6046,
      "Ġdy": 6047,
      "Ġdign": 6048,
      "Ġdread": 6049,
      "Ġdaught": 6050,
      "Ġdressed": 6051,
      "Ġdancing": 6052,
      "Ġlat": 6053,
      "Ġlies": 6054,
      "Ġlog": 6055,
      "Ġlifted": 6056,
      "Ġloyal": 6057,
      "rop": 6058,
      "Ġnort": 6059,
      "Ġeld": 6060,
      "Ġecc": 6061,
      "Ġbell": 6062,
      "Ġheating": 6063,
      "Ġhesit": 6064,
      "Ġgest": 6065,
      "Ġgrim": 6066,
      "Ġgrie": 6067,
      "entive": 6068,
      "entric": 6069,
      "Ġrend": 6070,
      "Ġrear": 6071,
      "omy": 6072,
      "omple": 6073,
      "otal": 6074,
      "othes": 6075,
      "Ġstage": 6076,
      "Ġstamp": 6077,
      "celain": 6078,
      "riving": 6079,
      "ĠTe": 6080,
      "ĠTra": 6081,
      "amil": 6082,
      "urch": 6083,
      "urable": 6084,
      "ĠPL": 6085,
      "ĠPer": 6086,
      "Ġyard": 6087,
      "chant": 6088,
      "ĠAustr": 6089,
      "ĠAMER": 6090,
      "Ġanci": 6091,
      "Ġancest": 6092,
      "ĠSuch": 6093,
      "ĠSomet": 6094,
      "ĠSouth": 6095,
      "ĠSupp": 6096,
      "illity": 6097,
      "ĠHa": 6098,
      "Ġhall": 6099,
      "ichael": 6100,
      "ulation": 6101,
      "ulgar": 6102,
      "raft": 6103,
      "raction": 6104,
      "ĠGold": 6105,
      "ĠCal": 6106,
      "ĠCub": 6107,
      "Ġshone": 6108,
      "Ġshade": 6109,
      "Ġshared": 6110,
      "Ġshirt": 6111,
      "ushes": 6112,
      "elow": 6113,
      "Ġvig": 6114,
      "Ġvulgar": 6115,
      "Ġmol": 6116,
      "ĠMu": 6117,
      "ĠMy": 6118,
      "ĠMoh": 6119,
      "ĠMichael": 6120,
      "quillity": 6121,
      "Ġexcess": 6122,
      "Ġexec": 6123,
      "ells": 6124,
      "ĠWatch": 6125,
      "aping": 6126,
      "ĠFather": 6127,
      "ĠFrance": 6128,
      "unities": 6129,
      "Ġrul": 6130,
      "Ġrushed": 6131,
      "ĠLexington": 6132,
      "Ġsaved": 6133,
      "Ġchamp": 6134,
      "orting": 6135,
      "Ġkings": 6136,
      "Ġintr": 6137,
      "Ġintense": 6138,
      "Ġarg": 6139,
      "Ġdoors": 6140,
      "ĠElect": 6141,
      "ĠErid": 6142,
      "ĠEta": 6143,
      "ĠEarth": 6144,
      "Ġnoise": 6145,
      "Ġnodd": 6146,
      "Ġobey": 6147,
      "Ġplate": 6148,
      "Ġagent": 6149,
      "Ġaggreg": 6150,
      "ĠRuf": 6151,
      "Ġenabled": 6152,
      "venue": 6153,
      "Ġwhenever": 6154,
      "Ġrod": 6155,
      "Ġrocks": 6156,
      "seless": 6157,
      "Ġwouldn": 6158,
      "Ġadjust": 6159,
      "arency": 6160,
      "Ġclub": 6161,
      "cluster": 6162,
      "Ġglanced": 6163,
      "Ġdistances": 6164,
      "Ġqueer": 6165,
      "Ġgrade": 6166,
      "aching": 6167,
      "ollect": 6168,
      "ollux": 6169,
      "Ġformation": 6170,
      "Ġcommission": 6171,
      "Ġshel": 6172,
      "Ġamaz": 6173,
      "Ġremove": 6174,
      "Ġblow": 6175,
      "Ġthrust": 6176,
      "Ġscr": 6177,
      "Ġindiffer": 6178,
      "Ġresol": 6179,
      "Ġimpat": 6180,
      "Ġimpressed": 6181,
      "ĠJerse": 6182,
      "ĠJapan": 6183,
      "oyne": 6184,
      "Ġ31": 6185,
      "Ġolder": 6186,
      "awks": 6187,
      "Ġlights": 6188,
      "Ġexpense": 6189,
      "Ġenter": 6190,
      "Ġentertain": 6191,
      "Ġrage": 6192,
      "ension": 6193,
      "Ġreaders": 6194,
      "Ġsurrender": 6195,
      "Ġvisits": 6196,
      "ĠArt": 6197,
      "Ġspecul": 6198,
      "Ġmetall": 6199,
      "Ġsupplied": 6200,
      "Ġbeggar": 6201,
      "Ġkey": 6202,
      "Ġcob": 6203,
      "Ġ42": 6204,
      "Ġ43": 6205,
      "ĠAlgol": 6206,
      "Ġskill": 6207,
      "everal": 6208,
      "Ġrecall": 6209,
      "Ġwarrant": 6210,
      "Ġdefended": 6211,
      "Ġserve": 6212,
      "Ġserene": 6213,
      "ĠKnow": 6214,
      "bulb": 6215,
      "Ġ65": 6216,
      "ĠConcord": 6217,
      "Ġ74": 6218,
      "Ġreturning": 6219,
      "Ġcheeks": 6220,
      "Ġsteady": 6221,
      "Ġmode": 6222,
      "Ġrepresentations": 6223,
      "ocks": 6224,
      "ocked": 6225,
      "Ġforehead": 6226,
      "Ġfortune": 6227,
      "Ġ104": 6228,
      ".--_": 6229,
      "Ġboard": 6230,
      "Ġboats": 6231,
      "Ġsolution": 6232,
      "Ġviews": 6233,
      "Ġviewing": 6234,
      "Ġmarry": 6235,
      "Ġtraced": 6236,
      "Ġaffect": 6237,
      "Ġaffairs": 6238,
      "Ġcorpor": 6239,
      "Ġtradition": 6240,
      "Ġgenerator": 6241,
      "Ġpossesses": 6242,
      "Ġartist": 6243,
      "Ġmoments": 6244,
      "shot": 6245,
      "Ġopposed": 6246,
      "Ġneeds": 6247,
      "Ġ135": 6248,
      "Ġmatters": 6249,
      "Ġcollected": 6250,
      "Ġrelated": 6251,
      "Ġrelations": 6252,
      "ĠAtl": 6253,
      "Ġcontinuous": 6254,
      "Ġbeautifully": 6255,
      "mbl": 6256,
      "Ġlearning": 6257,
      "Ġadmired": 6258,
      "Ġbloody": 6259,
      "Ġeffective": 6260,
      "Ġnebulae": 6261,
      "Ġsuccessive": 6262,
      "Ġrisen": 6263,
      "Ġdriver": 6264,
      "Ġdriven": 6265,
      "Ġevident": 6266,
      "Ġindicating": 6267,
      "Ġseparating": 6268,
      "Ġaware": 6269,
      "Ġmeasures": 6270,
      "Ġmeasuring": 6271,
      "Ġgentlemen": 6272,
      "Ġdrove": 6273,
      "Ġdrops": 6274,
      "Ġnorthwest": 6275,
      "Ġbusy": 6276,
      "Ġeighth": 6277,
      "Ġwalking": 6278,
      "Ġfacility": 6279,
      "Ġcraters": 6280,
      "ĠXI": 6281,
      "ĠCanis": 6282,
      "Ġboys": 6283,
      "Ġdiseases": 6284,
      "Ġservices": 6285,
      "Ġfalling": 6286,
      "ICAN": 6287,
      "Ġdivision": 6288,
      "Ġcaptured": 6289,
      "Ġzodiac": 6290,
      "Ġtriumph": 6291,
      "Ġtriangle": 6292,
      "Ġdangerous": 6293,
      "...!": 6294,
      "Stars": 6295,
      "Ġslept": 6296,
      "Ġpotash": 6297,
      "Ġwidely": 6298,
      "Ġwatching": 6299,
      "ega": 6300,
      "Ġcomputed": 6301,
      "Ġtypes": 6302,
      "Ġbesides": 6303,
      "Ġcalculate": 6304,
      "Ġfearless": 6305,
      "Ġcreature": 6306,
      "letter": 6307,
      "Ġprofound": 6308,
      "Ġimmense": 6309,
      "Ġreferred": 6310,
      "Ġbelonging": 6311,
      "ĠSpring": 6312,
      "Ġspirits": 6313,
      "Ġmarching": 6314,
      "ĠLyman": 6315,
      "Ġopportunities": 6316,
      "ĠSUP": 6317,
      "Ġdesigned": 6318,
      "Ġ1755": 6319,
      "Ġridic": 6320,
      "Ġflying": 6321,
      "ustomed": 6322,
      "Ġdream": 6323,
      "Ġconcluded": 6324,
      "Ġremembered": 6325,
      "Ġrecords": 6326,
      "Ġdeparted": 6327,
      "Ġlistened": 6328,
      "Ġproceeded": 6329,
      "Ġconsequence": 6330,
      "Ġconsequently": 6331,
      "ĠContinent": 6332,
      "Ġerected": 6333,
      "Ġinquir": 6334,
      "Ġseventy": 6335,
      "Ġmulti": 6336,
      "ĠService": 6337,
      "Ġtransparency": 6338,
      "Ġgarrison": 6339,
      "Ġexceedingly": 6340,
      "ĠFigure": 6341,
      "Ġcontempl": 6342,
      "Ġencountered": 6343,
      "Ġerrors": 6344,
      "Ġbulk": 6345,
      "Ġgods": 6346,
      "Ġstroke": 6347,
      "Ġsuspended": 6348,
      "Ġfrequently": 6349,
      "ĠHartford": 6350,
      "Ġimpression": 6351,
      "Ġconsisting": 6352,
      "Ġgenius": 6353,
      "Ġscheme": 6354,
      "Adam": 6355,
      "Ġstyle": 6356,
      "Ġcomprehend": 6357,
      "Ġcruel": 6358,
      "Ġhorns": 6359,
      "ummel": 6360,
      "Ġpreparations": 6361,
      "Ġmoustache": 6362,
      "Ġhemisphere": 6363,
      "Ġgathering": 6364,
      "ĠSagittarius": 6365,
      "Ġcomplicated": 6366,
      "Ġconsulting": 6367,
      "Ġextraordinary": 6368,
      "Ġcultiv": 6369,
      "ĠMadge": 6370,
      "ĠBurgoyne": 6371,
      "Ġacquaintance": 6372,
      "erenice": 6373,
      "Ġbosom": 6374,
      "Ġinterrupted": 6375,
      "Ġsunshine": 6376,
      "ĠAristarchus": 6377,
      "Ġengagement": 6378,
      "Ġcuriosity": 6379,
      "Ġcatalog": 6380,
      "Ġdaughters": 6381,
      "Ġeccentric": 6382,
      "omplete": 6383,
      "ĠAMERICAN": 6384,
      "Ġancients": 6385,
      "ĠRufus": 6386,
      "\"),": 6387,
      "30": 6388,
      "36": 6389,
      "38": 6390,
      "46": 6391,
      "Are": 6392,
      "Every": 6393,
      "Here": 6394,
      "Hastings": 6395,
      "IB": 6396,
      "IND": 6397,
      "Just": 6398,
      "Man": 6399,
      "Master": 6400,
      "Ne": 6401,
      "Pl": 6402,
      "PRO": 6403,
      "RS": 6404,
      "SA": 6405,
      "Sarelli": 6406,
      "TON": 6407,
      "UC": 6408,
      "UM": 6409,
      "Will": 6410,
      "bable": 6411,
      "bows": 6412,
      "does": 6413,
      "delta": 6414,
      "father": 6415,
      "field": 6416,
      "gon": 6417,
      "gain": 6418,
      "great": 6419,
      "ghed": 6420,
      "gment": 6421,
      "gaz": 6422,
      "grim": 6423,
      "ho": 6424,
      "ih": 6425,
      "iently": 6426,
      "iety": 6427,
      "joy": 6428,
      "ki": 6429,
      "leness": 6430,
      "mir": 6431,
      "map": 6432,
      "mount": 6433,
      "morrow": 6434,
      "pite": 6435,
      "power": 6436,
      "pread": 6437,
      "sm": 6438,
      "sy": 6439,
      "tube": 6440,
      "uble": 6441,
      "uish": 6442,
      "vil": 6443,
      "xes": 6444,
      "ym": 6445,
      "your": 6446,
      "}........": 6447,
      "Ġ}........": 6448,
      "Ġton": 6449,
      "Ġtong": 6450,
      "Ġterm": 6451,
      "Ġtorn": 6452,
      "Ġtract": 6453,
      "Ġtears": 6454,
      "Ġtiny": 6455,
      "hearted": 6456,
      "Ġack": 6457,
      "Ġahead": 6458,
      "inate": 6459,
      "inally": 6460,
      "Ġwet": 6461,
      "Ġwished": 6462,
      "Ġwides": 6463,
      "Ġsway": 6464,
      "Ġsnow": 6465,
      "Ġsighed": 6466,
      "reted": 6467,
      "isces": 6468,
      "isters": 6469,
      "ato": 6470,
      "atas": 6471,
      "educt": 6472,
      "enic": 6473,
      "itary": 6474,
      "itement": 6475,
      "Ġben": 6476,
      "Ġbag": 6477,
      "Ġbron": 6478,
      "Ġbite": 6479,
      "Ġbatt": 6480,
      "Ġfill": 6481,
      "Ġfru": 6482,
      "Ġfoc": 6483,
      "Ġfaded": 6484,
      "Ġfires": 6485,
      "Ġcou": 6486,
      "Ġcran": 6487,
      "Ġcork": 6488,
      "Ġcattle": 6489,
      "Ġcases": 6490,
      "Ġhate": 6491,
      "Ġhue": 6492,
      "oul": 6493,
      "oring": 6494,
      "espite": 6495,
      "Ġpig": 6496,
      "Ġpink": 6497,
      "Ġpause": 6498,
      "Ġpushed": 6499,
      "Ġdil": 6500,
      "Ġdrying": 6501,
      "Ġdawn": 6502,
      "Ġdirt": 6503,
      "Ġdatas": 6504,
      "Ġlamp": 6505,
      "Ġlof": 6506,
      "Ġloyalty": 6507,
      "Ġnur": 6508,
      "lement": 6509,
      "Ġecon": 6510,
      "stock": 6511,
      "stronom": 6512,
      "Ġgn": 6513,
      "Ġgal": 6514,
      "Ġgross": 6515,
      "entment": 6516,
      "Ġreview": 6517,
      "lying": 6518,
      "omed": 6519,
      "alance": 6520,
      "ota": 6521,
      "Ġstature": 6522,
      "Ġstock": 6523,
      "Ġstages": 6524,
      "Ġstaff": 6525,
      "Ġstiff": 6526,
      "cember": 6527,
      "rif": 6528,
      "rior": 6529,
      "rious": 6530,
      "Ġislands": 6531,
      "idity": 6532,
      "idian": 6533,
      "ĠTit": 6534,
      "ĠTurn": 6535,
      "ĠTran": 6536,
      "ĠTotal": 6537,
      "uration": 6538,
      "urred": 6539,
      "urity": 6540,
      "ĠParis": 6541,
      "ĠPegasus": 6542,
      "ĠPollux": 6543,
      "chn": 6544,
      "Ġant": 6545,
      "ĠSl": 6546,
      "ĠSpe": 6547,
      "ĠSCI": 6548,
      "ĠSouthern": 6549,
      "ĠHar": 6550,
      "ĠHann": 6551,
      "ĠHizen": 6552,
      "herical": 6553,
      "allen": 6554,
      "ifies": 6555,
      "uls": 6556,
      "ila": 6557,
      "ilation": 6558,
      "ilities": 6559,
      "emed": 6560,
      "ĠGates": 6561,
      "ĠGreen": 6562,
      "ĠCo": 6563,
      "Ġshy": 6564,
      "usc": 6565,
      "usive": 6566,
      "ussion": 6567,
      "Ġcomets": 6568,
      "Ġcomfort": 6569,
      "eless": 6570,
      "quair": 6571,
      "ĠBessel": 6572,
      "Ġexch": 6573,
      "olute": 6574,
      "acles": 6575,
      "....\"": 6576,
      "Ġproc": 6577,
      "Ġprol": 6578,
      "ousin": 6579,
      "uming": 6580,
      "ardon": 6581,
      "Ġsoil": 6582,
      "ĠWinds": 6583,
      "apes": 6584,
      "osen": 6585,
      "osite": 6586,
      "ĠFIG": 6587,
      "ĠFirst": 6588,
      "Ġalter": 6589,
      "Ġrain": 6590,
      "ĠLambda": 6591,
      "ourn": 6592,
      "Ġsaving": 6593,
      "Ġspy": 6594,
      "Ġspite": 6595,
      "Ġspherical": 6596,
      "----": 6597,
      "ĠPros": 6598,
      "ĠProdu": 6599,
      "Ġintim": 6600,
      "Ġweb": 6601,
      "Ġwealth": 6602,
      "Ġarc": 6603,
      "ĠDur": 6604,
      "ĠDra": 6605,
      "ĠDem": 6606,
      "ĠDip": 6607,
      "ĠDespite": 6608,
      "Ġabrupt": 6609,
      "Ġdozen": 6610,
      "ccording": 6611,
      "Ġdiscer": 6612,
      "ĠEgy": 6613,
      "ooked": 6614,
      "ptune": 6615,
      "ĠRO": 6616,
      "ĠRep": 6617,
      "Ġfeared": 6618,
      "Ġtwin": 6619,
      "Ġleather": 6620,
      "Ġapply": 6621,
      "Ġappreci": 6622,
      "Ġunh": 6623,
      "Ġunus": 6624,
      "Ġunex": 6625,
      "Ġunlike": 6626,
      "Ġrob": 6627,
      "Ġlibr": 6628,
      "abeth": 6629,
      "oseph": 6630,
      "Ġflan": 6631,
      "Ġmoreover": 6632,
      "Ġclim": 6633,
      "cked": 6634,
      "Ġglare": 6635,
      "Ġdistrict": 6636,
      "Ġdistinction": 6637,
      "phate": 6638,
      "Ġgrin": 6639,
      "Ġgran": 6640,
      "Ġaccustomed": 6641,
      "izabeth": 6642,
      "Ġfiring": 6643,
      "Ġparted": 6644,
      "Ġpartly": 6645,
      "Ġconstitu": 6646,
      "ruary": 6647,
      "coat": 6648,
      "Ġcouldn": 6649,
      "ailing": 6650,
      "ĠVol": 6651,
      "ignific": 6652,
      "Ġpassengers": 6653,
      "Ġ39": 6654,
      "Ġpeas": 6655,
      "Ġregret": 6656,
      "Ġbelief": 6657,
      "Ġbeloved": 6658,
      "Ġfoundation": 6659,
      "Ġacres": 6660,
      "Ġmillst": 6661,
      "Ġknowing": 6662,
      "Ġcharming": 6663,
      "Ġcharitable": 6664,
      "ĠNeptune": 6665,
      "Ġ51": 6666,
      "Ġ56": 6667,
      "Ġsettle": 6668,
      "Ġprovision": 6669,
      "ĠChrist": 6670,
      "Ġdetection": 6671,
      "Ġcountries": 6672,
      "ĠAlp": 6673,
      "Ġrecent": 6674,
      "Ġactivity": 6675,
      "Ġeverybody": 6676,
      "ENCE": 6677,
      "Ġeffici": 6678,
      "Ġsubsc": 6679,
      "Ġdefeated": 6680,
      "Ġminimum": 6681,
      "Ġsentin": 6682,
      "ĠKe": 6683,
      "Ġrefused": 6684,
      "Ġadditions": 6685,
      "Ġrights": 6686,
      "Ġincomplete": 6687,
      "Ġcolors": 6688,
      "Ġ67": 6689,
      "Ġdifferences": 6690,
      "Ġincludes": 6691,
      "Ġfinest": 6692,
      "arsh": 6693,
      "Ġ1888": 6694,
      "Ġtelescopic": 6695,
      "Ġequin": 6696,
      "Ġconfusion": 6697,
      "Ġ91": 6698,
      "Ġrig": 6699,
      "Ġfortifying": 6700,
      "Ġfortifications": 6701,
      "Ġ102": 6702,
      "Ġswing": 6703,
      "Ġassumed": 6704,
      "Ġassigned": 6705,
      "Ġworlds": 6706,
      "Ġ82": 6707,
      "Ġboast": 6708,
      "Ġboiling": 6709,
      "Ġfellows": 6710,
      "Ġrooms": 6711,
      "Ġhorror": 6712,
      "Ġsoluble": 6713,
      "Ġproducing": 6714,
      "Ġhandsome": 6715,
      "Ġirres": 6716,
      "Ġaccessible": 6717,
      "appa": 6718,
      "Ġtreas": 6719,
      "Ġtreason": 6720,
      "Ġinfant": 6721,
      "Ġaffair": 6722,
      "Ġaffixed": 6723,
      "Ġinvari": 6724,
      "Ġgenerous": 6725,
      "Ġsuffering": 6726,
      "Ġgrav": 6727,
      "Ġgracious": 6728,
      "Ġstreams": 6729,
      "Ġshortly": 6730,
      "shaped": 6731,
      "Ġsixth": 6732,
      "Ġvoices": 6733,
      "ological": 6734,
      "Ġtransfer": 6735,
      "Ġdoorway": 6736,
      "Ġamongst": 6737,
      "Ġopposite": 6738,
      "Ġwinding": 6739,
      "Ġwindows": 6740,
      "Ġfaintly": 6741,
      "Ġhappiness": 6742,
      "Ġexisted": 6743,
      "Ġreasonable": 6744,
      "Ġcomplex": 6745,
      "ĠCapt": 6746,
      "Ġcontinually": 6747,
      "Ġpropriet": 6748,
      "sociation": 6749,
      "Ġkinds": 6750,
      "Ġadmit": 6751,
      "Ġdevice": 6752,
      "Ġcurtain": 6753,
      "Ġsuccessfully": 6754,
      "Ġsigns": 6755,
      "Ġreductions": 6756,
      "Ġformerly": 6757,
      "Ġstudies": 6758,
      "Ġstudied": 6759,
      "Ġtruths": 6760,
      "who": 6761,
      "Ġteeth": 6762,
      "Ġaccordingly": 6763,
      "Ġnorthward": 6764,
      "Ġneighbour": 6765,
      "Ġeighty": 6766,
      "Ġloved": 6767,
      "Ġstored": 6768,
      "Ġpursue": 6769,
      "Ġhonest": 6770,
      "Ġdiscont": 6771,
      "Ġdiscuss": 6772,
      "Ġdiscussion": 6773,
      "Ġprinciples": 6774,
      "Ġestim": 6775,
      "Ġcapture": 6776,
      "Ġ190": 6777,
      "Who": 6778,
      "Ġideas": 6779,
      "Ġslee": 6780,
      "Ġpotter": 6781,
      "Ġschool": 6782,
      "Ġburner": 6783,
      "Ġcastle": 6784,
      "Ġderive": 6785,
      "Ġderived": 6786,
      "Ġbreakfast": 6787,
      "Ġbrothers": 6788,
      "Ġwidow": 6789,
      "Ġpunch": 6790,
      "ography": 6791,
      "Ġnegative": 6792,
      "Ġabsor": 6793,
      "Ġversion": 6794,
      "Ġidentification": 6795,
      "Ġborne": 6796,
      "Ġcorners": 6797,
      "Ġbelongs": 6798,
      "Ġmechanical": 6799,
      "Ġbecoming": 6800,
      "Ġadmirable": 6801,
      "Ġveter": 6802,
      "Ġhyper": 6803,
      "Ġprecious": 6804,
      "Ġfreed": 6805,
      "Ġmaterials": 6806,
      "Ġfleet": 6807,
      "obert": 6808,
      "Ġfault": 6809,
      "Ġdealing": 6810,
      "Ġglimmer": 6811,
      "Ġembark": 6812,
      "Ġembraced": 6813,
      "Ġdiversion": 6814,
      "Ġexperimental": 6815,
      "Ġsorrow": 6816,
      "Ġranks": 6817,
      "Ġintroduction": 6818,
      "ĠDISC": 6819,
      "Ġfiery": 6820,
      "Ġseventh": 6821,
      "Ġmaintained": 6822,
      "Ġmaintaining": 6823,
      "PLEMENT": 6824,
      "Ġradi": 6825,
      "ATIONS": 6826,
      "coming": 6827,
      "Ġguns": 6828,
      "Ġblazing": 6829,
      "Ġ1881": 6830,
      "Ġsprang": 6831,
      "ĠNEW": 6832,
      "Ġpossibility": 6833,
      "Ġencounter": 6834,
      "Ġsatisfaction": 6835,
      "Ġfrightened": 6836,
      "Ġporcelain": 6837,
      "Ġportions": 6838,
      "ĠScruff": 6839,
      "Ġtwinkling": 6840,
      "Ġsubsequently": 6841,
      "Ġanxious": 6842,
      "Ġexcellent": 6843,
      "Ġexcellence": 6844,
      "Ġperilous": 6845,
      "Ġjudge": 6846,
      "Ġprivate": 6847,
      "ĠElizabeth": 6848,
      "Ġfortunes": 6849,
      "Ġastonished": 6850,
      "ĠQue": 6851,
      "Ġborder": 6852,
      "Ġnetwork": 6853,
      "Ġvapour": 6854,
      "ĠLancast": 6855,
      "Ġcauses": 6856,
      "About": 6857,
      "Ġharmless": 6858,
      "Ġstirring": 6859,
      "Ġcomrade": 6860,
      "Ġinterpreted": 6861,
      "ENTIFIC": 6862,
      "Ġanticipated": 6863,
      "Ġessential": 6864,
      "Ġinsects": 6865,
      "ĠPomfret": 6866,
      "Ġuneas": 6867,
      "Ġliquid": 6868,
      "Ġdazzling": 6869,
      "ĠMira": 6870,
      "Ġcomponents": 6871,
      "ĠAlbany": 6872,
      "Ġpurchase": 6873,
      "Ġcorrugated": 6874,
      "Ġsignificance": 6875,
      "Ġingenious": 6876,
      "Ġstatements": 6877,
      "Ġtavern": 6878,
      "Ġtulle": 6879,
      "umption": 6880,
      "Ġmanufacture": 6881,
      "Ġquivering": 6882,
      "Ġoverwhelming": 6883,
      "Ġcivil": 6884,
      "Ġstupendous": 6885,
      "Ġvoyage": 6886,
      "ĠBunsen": 6887,
      "ĠOphiuchus": 6888,
      "ĠCharles": 6889,
      "Ġsummoned": 6890,
      "Ġnineteen": 6891,
      "hibition": 6892,
      "ĠTraquair": 6893,
      "ĠEridanus": 6894,
      "ĠJersey": 6895,
      "ĠSUPPLEMENT": 6896,
      "Ġinquiry": 6897,
      "Ġacknow": 6898,
      "Ġwidespread": 6899,
      "Ġcranes": 6900,
      "Ġlofty": 6901,
      "ĠTranquillity": 6902,
      "ĠSCIENTIFIC": 6903,
      "ĠWindsor": 6904,
      "ĠProduced": 6905,
      "ĠEgypt": 6906,
      ")(": 6907,
      ".;": 6908,
      "11": 6909,
      "12": 6910,
      "23": 6911,
      "200": 6912,
      "48": 6913,
      "622": 6914,
      "704": 6915,
      "862": 6916,
      "90": 6917,
      "Bet": 6918,
      "Cl": 6919,
      "Dawney": 6920,
      "EA": 6921,
      "Her": 6922,
      "OL": 6923,
      "OT": 6924,
      "Our": 6925,
      "PT": 6926,
      "PLA": 6927,
      "QU": 6928,
      "Right": 6929,
      "Richard": 6930,
      "Sh": 6931,
      "Sir": 6932,
      "Some": 6933,
      "Un": 6934,
      "Vol": 6935,
      "ait": 6936,
      "bo": 6937,
      "bser": 6938,
      "bled": 6939,
      "bec": 6940,
      "camp": 6941,
      "craft": 6942,
      "dge": 6943,
      "dition": 6944,
      "drew": 6945,
      "ege": 6946,
      "eors": 6947,
      "fl": 6948,
      "from": 6949,
      "flies": 6950,
      "gthe": 6951,
      "ham": 6952,
      "horse": 6953,
      "ias": 6954,
      "ige": 6955,
      "kward": 6956,
      "lar": 6957,
      "link": 6958,
      "lambda": 6959,
      "me": 6960,
      "mun": 6961,
      "na": 6962,
      "nines": 6963,
      "oqu": 6964,
      "pi": 6965,
      "pass": 6966,
      "post": 6967,
      "pected": 6968,
      "rough": 6969,
      "sing": 6970,
      "sal": 6971,
      "tion": 6972,
      "tical": 6973,
      "vus": 6974,
      "vest": 6975,
      "vals": 6976,
      "voir": 6977,
      "wood": 6978,
      "wild": 6979,
      "wyn": 6980,
      "yram": 6981,
      "Ġtact": 6982,
      "Ġtied": 6983,
      "Ġterr": 6984,
      "Ġtale": 6985,
      "Ġaide": 6986,
      "inal": 6987,
      "inch": 6988,
      "inous": 6989,
      "inity": 6990,
      "inue": 6991,
      "inarily": 6992,
      "Ġodd": 6993,
      "Ġowed": 6994,
      "erity": 6995,
      "erry": 6996,
      "erness": 6997,
      "Ġwound": 6998,
      "Ġwiz": 6999,
      "Ġwoke": 7000,
      "Ġsan": 7001,
      "Ġshed": 7002,
      "Ġsinking": 7003,
      "real": 7004,
      "onis": 7005,
      "atical": 7006,
      "atives": 7007,
      "enes": 7008,
      "itor": 7009,
      "Ġbrows": 7010,
      "Ġfits": 7011,
      "Ġfanc": 7012,
      "Ġfuel": 7013,
      "Ġhal": 7014,
      "Ġhind": 7015,
      "Ġhamm": 7016,
      "ouis": 7017,
      "Ġmag": 7018,
      "Ġmaj": 7019,
      "orthy": 7020,
      "esh": 7021,
      "Ġparent": 7022,
      "Ġpounds": 7023,
      "Ġpuzz": 7024,
      "Ġinj": 7025,
      "Ġtow": 7026,
      "Ġtoil": 7027,
      "Ġtoils": 7028,
      "ancial": 7029,
      "Ġdie": 7030,
      "Ġdub": 7031,
      "Ġdrum": 7032,
      "Ġdeduct": 7033,
      "llen": 7034,
      "asse": 7035,
      "Ġlic": 7036,
      "Ġlap": 7037,
      "Ġlaughter": 7038,
      "roll": 7039,
      "Ġnice": 7040,
      "Ġeh": 7041,
      "Ġheels": 7042,
      "Ġgem": 7043,
      "Ġgained": 7044,
      "Ġreapp": 7045,
      "omal": 7046,
      "omical": 7047,
      "omini": 7048,
      "aling": 7049,
      "alog": 7050,
      "Ġstare": 7051,
      "Ġstayed": 7052,
      "Ġstern": 7053,
      "rive": 7054,
      "Ġwithdrew": 7055,
      "Ġiss": 7056,
      "ids": 7057,
      "ĠTR": 7058,
      "ampl": 7059,
      "irable": 7060,
      "ĠIRS": 7061,
      "Ġashes": 7062,
      "ĠPA": 7063,
      "ĠPisces": 7064,
      "terday": 7065,
      "ĠAT": 7066,
      "ĠAstronom": 7067,
      "Ġanec": 7068,
      "Ġanalog": 7069,
      "ĠSte": 7070,
      "ĠSuddenly": 7071,
      "ĠSEND": 7072,
      "ĠSeveral": 7073,
      "ĠHA": 7074,
      "ĠHouse": 7075,
      "Ġhaught": 7076,
      "Ġnotes": 7077,
      "Ġnotion": 7078,
      "Ġsuitable": 7079,
      "Ġsullen": 7080,
      "Ġconj": 7081,
      "Ġcontext": 7082,
      "rac": 7083,
      "raged": 7084,
      "ilgrim": 7085,
      "emen": 7086,
      "eman": 7087,
      "ĠGood": 7088,
      "ĠGulf": 7089,
      "ĠCR": 7090,
      "ĠCould": 7091,
      "ĠColl": 7092,
      "ĠCompl": 7093,
      "ĠCopyright": 7094,
      "Ġshout": 7095,
      "Ġsharing": 7096,
      "Ġshaped": 7097,
      "using": 7098,
      "Ġviz": 7099,
      "ĠMa": 7100,
      "Ġ160": 7101,
      "ĠBelt": 7102,
      "ĠBerenice": 7103,
      "Ġexert": 7104,
      "istic": 7105,
      "olph": 7106,
      "Ġprohibition": 7107,
      "ustrious": 7108,
      "ĠWell": 7109,
      "ĠWood": 7110,
      "ĠWater": 7111,
      "ĠWolf": 7112,
      "ĠWORK": 7113,
      "Ġdeed": 7114,
      "Ġdeeds": 7115,
      "osure": 7116,
      "ĠFar": 7117,
      "ĠFra": 7118,
      "ĠFred": 7119,
      "Ġric": 7120,
      "Ġrud": 7121,
      "Ġroused": 7122,
      "ĠLion": 7123,
      "ĠLear": 7124,
      "ĠLady": 7125,
      "ĠLibra": 7126,
      "ĠLouis": 7127,
      "Ġsake": 7128,
      "Ġworked": 7129,
      "Ġspend": 7130,
      "Ġcho": 7131,
      "Ġchop": 7132,
      "Ġchosen": 7133,
      "akers": 7134,
      "orted": 7135,
      "ortun": 7136,
      "ortex": 7137,
      "earing": 7138,
      "earch": 7139,
      "ĠNJ": 7140,
      "igent": 7141,
      "nton": 7142,
      "Ġintent": 7143,
      "Ġmaneu": 7144,
      "Ġ($": 7145,
      "agon": 7146,
      "ĠOP": 7147,
      "ĠOh": 7148,
      "ĠOur": 7149,
      "ĠOber": 7150,
      "ĠDON": 7151,
      "Ġabstract": 7152,
      "Ġdischar": 7153,
      "ĠEND": 7154,
      "ĠEIN": 7155,
      "Ġobv": 7156,
      "perate": 7157,
      "Ġagency": 7158,
      "Ġcompare": 7159,
      "Ġoutdated": 7160,
      "ĠRain": 7161,
      "ĠREM": 7162,
      "ĠRobert": 7163,
      "Ġcanv": 7164,
      "Ġperpet": 7165,
      "Ġenjoy": 7166,
      "Ġenraged": 7167,
      "namo": 7168,
      "named": 7169,
      "Ġleis": 7170,
      "plains": 7171,
      "Ġunm": 7172,
      "Ġunpro": 7173,
      "Ġunique": 7174,
      "Ġwhence": 7175,
      "Ġlip": 7176,
      "Ġlikes": 7177,
      "Ġthank": 7178,
      "Ġwouldst": 7179,
      "Ġadap": 7180,
      "Ġimplied": 7181,
      "Ġfled": 7182,
      "Ġflow": 7183,
      "Ġflashing": 7184,
      "Ġflung": 7185,
      "Ġflesh": 7186,
      "Ġtrade": 7187,
      "Ġtrained": 7188,
      "clair": 7189,
      "Ġglitter": 7190,
      "Ġquad": 7191,
      "Ġquaint": 7192,
      "Ġmythology": 7193,
      "Ġknots": 7194,
      "Ġsmiling": 7195,
      "ĠYour": 7196,
      "ĠUp": 7197,
      "ĠUpon": 7198,
      "ĠUTC": 7199,
      "ĠUSA": 7200,
      "Ġcommer": 7201,
      "Ġprem": 7202,
      "Ġprey": 7203,
      "Ġhandker": 7204,
      "Ġammun": 7205,
      "ĠInternal": 7206,
      "ubber": 7207,
      "weep": 7208,
      "Ġjump": 7209,
      "Ġpoet": 7210,
      "Ġpocket": 7211,
      "Ġseeking": 7212,
      "sole": 7213,
      "theless": 7214,
      "theta": 7215,
      "Ġreports": 7216,
      "Ġrepute": 7217,
      "Ġreprodu": 7218,
      "Ġscant": 7219,
      "Ġindign": 7220,
      "Ġindisp": 7221,
      "Ġcontempt": 7222,
      "Ġcontributions": 7223,
      "six": 7224,
      "Ġresign": 7225,
      "Ġimposed": 7226,
      "ĠJoseph": 7227,
      "rence": 7228,
      "Ġevenings": 7229,
      "ailed": 7230,
      "ĠVII": 7231,
      "ĠVIII": 7232,
      "ĠStar": 7233,
      "awk": 7234,
      "Ġconspir": 7235,
      "Ġretired": 7236,
      "Ġexpected": 7237,
      "Ġregulating": 7238,
      "Ġpray": 7239,
      "Ġraise": 7240,
      "Ġraising": 7241,
      "Ġdownward": 7242,
      "ensions": 7243,
      "Ġacute": 7244,
      "Ġdonation": 7245,
      "Ġdonors": 7246,
      "Ġmillers": 7247,
      "ĠAratus": 7248,
      "Ġspeed": 7249,
      "Ġmeteor": 7250,
      "Ġsupposing": 7251,
      "Ġsecurity": 7252,
      "Ġcoar": 7253,
      "Ġcoff": 7254,
      "Ġcharities": 7255,
      "Ġcharges": 7256,
      "Ġoperation": 7257,
      "Ġappearances": 7258,
      "Ġinstant": 7259,
      "Ġinstruct": 7260,
      "readable": 7261,
      "Ġinclude": 7262,
      "Ġeyeb": 7263,
      "Ġrecon": 7264,
      "Ġrecollect": 7265,
      "Ġacted": 7266,
      "Ġcentral": 7267,
      "Ġcarries": 7268,
      "Ġended": 7269,
      "Ġfields": 7270,
      "ometer": 7271,
      "Ġwarning": 7272,
      "ĠAdmir": 7273,
      "Ġserious": 7274,
      "Ġserpent": 7275,
      "Ġbrings": 7276,
      "Ġextends": 7277,
      "Ġextending": 7278,
      "ĠKB": 7279,
      "ĠKIND": 7280,
      "Ġincap": 7281,
      "ificial": 7282,
      "aza": 7283,
      "Ġ68": 7284,
      "Ġ621": 7285,
      "Ġpresenting": 7286,
      "ĠUnless": 7287,
      "Ġfinish": 7288,
      "Ġfinancial": 7289,
      "Ġconflict": 7290,
      "Ġstrate": 7291,
      "Ġstranger": 7292,
      "Ġchecks": 7293,
      "ĠIndia": 7294,
      "Ġmodified": 7295,
      "Ġmodification": 7296,
      "Ġrepresenting": 7297,
      "Ġforemost": 7298,
      "Ġ103": 7299,
      "Ġ105": 7300,
      "Intern": 7301,
      "Ġswift": 7302,
      "Ġassume": 7303,
      "Thou": 7304,
      "Ġhorrible": 7305,
      "ARK": 7306,
      "Ġprotection": 7307,
      "Ġfamil": 7308,
      "Ġmarched": 7309,
      "Ġstandards": 7310,
      "ĠRevenue": 7311,
      "Ġremarks": 7312,
      "ĠFrenchmen": 7313,
      "Ġcircles": 7314,
      "CHAN": 7315,
      "Ġillustration": 7316,
      "Ġillustrious": 7317,
      "Ġaffections": 7318,
      "Ġwaved": 7319,
      "Ġcorrupt": 7320,
      "Ġinval": 7321,
      "Ġvolc": 7322,
      "Ġedition": 7323,
      "Ġexperienced": 7324,
      "Ġhumble": 7325,
      "Ġstreets": 7326,
      "Ġguide": 7327,
      "Ġvoid": 7328,
      "Ġvisitors": 7329,
      "Ġapprox": 7330,
      "Ġtransform": 7331,
      "chester": 7332,
      "Ġmeridian": 7333,
      "Ġlocations": 7334,
      "Ġdoesn": 7335,
      "Ġhappen": 7336,
      "Ġinsignific": 7337,
      "Ġdelay": 7338,
      "Ġrelief": 7339,
      "Ġwants": 7340,
      "ĠOnce": 7341,
      "Ġcontinue": 7342,
      "Ġproposed": 7343,
      "alet": 7344,
      "Ġlimbs": 7345,
      "Ġkindly": 7346,
      "Ġadmitted": 7347,
      "Ġstrike": 7348,
      "Ġdevil": 7349,
      "Ġcurve": 7350,
      "Ġpleased": 7351,
      "Ġoriginally": 7352,
      "Ġoriginator": 7353,
      "Ġsigned": 7354,
      "Ġsignal": 7355,
      "Ġreduced": 7356,
      "Ġfeeble": 7357,
      "Ġtells": 7358,
      "Ġbravery": 7359,
      "Ġoccasions": 7360,
      "Ġbrilliance": 7361,
      "Ġdestined": 7362,
      "Ġstudio": 7363,
      "Ġleader": 7364,
      "Ġleaders": 7365,
      "Ġindicates": 7366,
      "Ġtechn": 7367,
      "Ġawkward": 7368,
      "Ġconnect": 7369,
      "Ġsoftly": 7370,
      "Ġaccepting": 7371,
      "Ġpublished": 7372,
      "ĠAny": 7373,
      "Ġwalks": 7374,
      "Ġloving": 7375,
      "Ġ0704": 7376,
      "Ġhurrying": 7377,
      "Ġmistake": 7378,
      "Ġmistress": 7379,
      "Ġfairly": 7380,
      "ĠTrenton": 7381,
      "Ġreveals": 7382,
      "Ġexcitement": 7383,
      "Ġtrip": 7384,
      "Ġdrinking": 7385,
      "Ġtouching": 7386,
      "Ġarrangements": 7387,
      "fects": 7388,
      "Ġburned": 7389,
      "Ġremoval": 7390,
      "Ġhelped": 7391,
      "Ġfurnaces": 7392,
      "going": 7393,
      "Ġvictim": 7394,
      "Ġencoura": 7395,
      "Ġroads": 7396,
      "ĠAndromedae": 7397,
      "Ġpaperwork": 7398,
      "Ġwidth": 7399,
      "Ġdimensions": 7400,
      "Ġangle": 7401,
      "ĠMontreal": 7402,
      "ĠMontclair": 7403,
      "Ġauthors": 7404,
      "Ġwilderness": 7405,
      "Ġprofits": 7406,
      "Ġapartments": 7407,
      "annin": 7408,
      "Ġannual": 7409,
      "Ġannounced": 7410,
      "Ġhostile": 7411,
      "Ġdamage": 7412,
      "Ġmechanism": 7413,
      "Ġunfortun": 7414,
      "Ġattacked": 7415,
      "Ġbooks": 7416,
      "Ġrevolving": 7417,
      "Ġvastly": 7418,
      "Ġattendant": 7419,
      "Ġattendants": 7420,
      "Ġ303": 7421,
      "Ġ501": 7422,
      "Ġ1872": 7423,
      "Ġveget": 7424,
      "Ġforgive": 7425,
      "Ġutil": 7426,
      "Ġutmost": 7427,
      "Ġuttered": 7428,
      "ĠDecember": 7429,
      "Ġmassac": 7430,
      "ĠSUN": 7431,
      "ĠSUCH": 7432,
      "Ġsharply": 7433,
      "Ġdeveloped": 7434,
      "Ġchamberlain": 7435,
      "Ġclothed": 7436,
      "Ġprevented": 7437,
      "Ġunderstanding": 7438,
      "Ġflew": 7439,
      "Ġdistinctly": 7440,
      "Ġauthority": 7441,
      "profit": 7442,
      "Ġdreamed": 7443,
      "Ġconclusion": 7444,
      "Ġstartled": 7445,
      "Ġglimps": 7446,
      "Ġextremity": 7447,
      "Ġdeparture": 7448,
      "Ġfinger": 7449,
      "Ġdivers": 7450,
      "ĠBetween": 7451,
      "Ġadventures": 7452,
      "Ġdespair": 7453,
      "ĠScorpion": 7454,
      "Ġdestroyed": 7455,
      "ĠContributions": 7456,
      "ugged": 7457,
      "Ġninety": 7458,
      "Ġprojects": 7459,
      ".............................": 7460,
      "Ġsweeping": 7461,
      "Ġinquire": 7462,
      "Ġsubstit": 7463,
      "Ġsolicitation": 7464,
      "ĠPlaza": 7465,
      "Ġnewsletter": 7466,
      "Ġcorresponding": 7467,
      "Ġcorrespondence": 7468,
      "Ġdelighted": 7469,
      "ĠDaniel": 7470,
      "Ġfeverish": 7471,
      "Ġblaze": 7472,
      "Ġmessage": 7473,
      "Ġmessenger": 7474,
      "Ġdusty": 7475,
      "Ġattained": 7476,
      "ĠMerope": 7477,
      "ĠNEG": 7478,
      "Ġaddresses": 7479,
      "Ġmuskets": 7480,
      "Ġsatisfactory": 7481,
      "Ġerror": 7482,
      "Ġlaughed": 7483,
      "Ġsuspected": 7484,
      "Ġunsolic": 7485,
      "Ġprecise": 7486,
      "Ġdeserted": 7487,
      "Ġboilers": 7488,
      "Ġexhibited": 7489,
      "Ġfrequent": 7490,
      "1541": 7491,
      "Ġcustomary": 7492,
      "Ġhealthy": 7493,
      "Ġignorant": 7494,
      "Ġgratitude": 7495,
      "Ġpicturesque": 7496,
      "Ġaverage": 7497,
      "Ġsalts": 7498,
      "Ġselected": 7499,
      "ĠGreek": 7500,
      "ĠLancaster": 7501,
      "Ġsparkling": 7502,
      "Ġaccurately": 7503,
      "Ġsurvive": 7504,
      "Ġwaistcoat": 7505,
      "516": 7506,
      "Ġfolds": 7507,
      "Ġpulled": 7508,
      "ĠBefore": 7509,
      "ĠEmail": 7510,
      "Ġambition": 7511,
      "Ġblanket": 7512,
      "Ġcorrect": 7513,
      "Ġeducational": 7514,
      "Ġsensib": 7515,
      "Ġamidst": 7516,
      "Ġscouting": 7517,
      "9288": 7518,
      "pennines": 7519,
      "Ġwithdrawn": 7520,
      "ĠTwins": 7521,
      "Ġanalysis": 7522,
      "ĠCastor": 7523,
      "Ġvarying": 7524,
      "Ġgratefully": 7525,
      "Ġdepths": 7526,
      "Ġtremendous": 7527,
      "Israel": 7528,
      "ĠNearly": 7529,
      "Ġobscure": 7530,
      "Ġdemonstrated": 7531,
      "Ġhypothes": 7532,
      "Ġmathematic": 7533,
      "Marg": 7534,
      "contact": 7535,
      "Ġwisdom": 7536,
      "Ġlinked": 7537,
      "Ġashamed": 7538,
      "Ġhazard": 7539,
      "Ġconvert": 7540,
      "Ġvirus": 7541,
      "ĠDuchess": 7542,
      "Ġdiscipline": 7543,
      "Ġplatform": 7544,
      "ĠThomas": 7545,
      "Ġsource": 7546,
      "Ġbubbles": 7547,
      "Ġdynamo": 7548,
      "Ġnortheast": 7549,
      "ĠGoldene": 7550,
      "ĠCuba": 7551,
      "Ġmolten": 7552,
      "ĠMohawks": 7553,
      "ĠWatchung": 7554,
      "Ġrules": 7555,
      "Ġmetallic": 7556,
      "Ġcorporation": 7557,
      "ĠContinental": 7558,
      "Ġbronze": 7559,
      "ĠHannah": 7560,
      "Ġalteration": 7561,
      "ĠDiptera": 7562,
      "Ġunusual": 7563,
      "Ġlibrary": 7564,
      "Ġdistricts": 7565,
      "Ġsubscribe": 7566,
      "6221541": 7567,
      "yramid": 7568,
      "Ġwizard": 7569,
      "Ġhammers": 7570,
      "Ġdeductible": 7571,
      "Ġlicensed": 7572,
      "Ġanecd": 7573,
      "ĠCompliance": 7574,
      "ĠDONATIONS": 7575,
      "Ġhandkerchief": 7576,
      "Ġammunition": 7577,
      "International": 7578,
      "Ġ07042": 7579,
      "Ġunsolicited": 7580,
      "Ġhypothesis": 7581,
      "!)": 7582,
      "\"--": 7583,
      "06": 7584,
      "26": 7585,
      "28": 7586,
      "37": 7587,
      "52": 7588,
      "78": 7589,
      "Am": 7590,
      "ACT": 7591,
      "Both": 7592,
      "Col": 7593,
      "CEMENT": 7594,
      "DED": 7595,
      "DENT": 7596,
      "EL": 7597,
      "Ex": 7598,
      "FU": 7599,
      "Hy": 7600,
      "Have": 7601,
      "Having": 7602,
      "IVE": 7603,
      "IMER": 7604,
      "ITIVE": 7605,
      "LIG": 7606,
      "Men": 7607,
      "Mean": 7608,
      "NG": 7609,
      "Nor": 7610,
      "New": 7611,
      "NITY": 7612,
      "NESS": 7613,
      "PP": 7614,
      "Ph": 7615,
      "Pub": 7616,
      "POSE": 7617,
      "RAP": 7618,
      "Since": 7619,
      "TA": 7620,
      "TO": 7621,
      "Tell": 7622,
      "Tauri": 7623,
      "UAL": 7624,
      "UBE": 7625,
      "VER": 7626,
      "WNER": 7627,
      "Yet": 7628,
      "aur": 7629,
      "aud": 7630,
      "after": 7631,
      "bet": 7632,
      "bid": 7633,
      "bour": 7634,
      "book": 7635,
      "car": 7636,
      "cas": 7637,
      "cular": 7638,
      "do": 7639,
      "description": 7640,
      "ez": 7641,
      "eper": 7642,
      "fund": 7643,
      "gel": 7644,
      "gies": 7645,
      "gage": 7646,
      "gement": 7647,
      "gments": 7648,
      "holes": 7649,
      "haust": 7650,
      "kin": 7651,
      "kill": 7652,
      "lin": 7653,
      "lim": 7654,
      "lton": 7655,
      "mail": 7656,
      "mission": 7657,
      "mah": 7658,
      "micron": 7659,
      "nable": 7660,
      "nify": 7661,
      "ov": 7662,
      "off": 7663,
      "point": 7664,
      "rater": 7665,
      "rating": 7666,
      "rained": 7667,
      "rubber": 7668,
      "sive": 7669,
      "tt": 7670,
      "tate": 7671,
      "ties": 7672,
      "town": 7673,
      "tected": 7674,
      "tively": 7675,
      "time": 7676,
      "uyl": 7677,
      "vation": 7678,
      "wari": 7679,
      "ygen": 7680,
      "zy": 7681,
      "Ġrib": 7682,
      "Ġice": 7683,
      "Ġtar": 7684,
      "Ġtumb": 7685,
      "Ġtannin": 7686,
      "hemer": 7687,
      "hetic": 7688,
      "Ġace": 7689,
      "iner": 7690,
      "inated": 7691,
      "Ġoval": 7692,
      "eres": 7693,
      "eroy": 7694,
      "Ġsly": 7695,
      "Ġsection": 7696,
      "Ġsits": 7697,
      "Ġsank": 7698,
      "rey": 7699,
      "rection": 7700,
      "reene": 7701,
      "repid": 7702,
      "once": 7703,
      "onet": 7704,
      "athed": 7705,
      "eno": 7706,
      "enet": 7707,
      "iture": 7708,
      "Ġble": 7709,
      "Ġbank": 7710,
      "Ġbones": 7711,
      "Ġbowing": 7712,
      "Ġberry": 7713,
      "Ġfat": 7714,
      "Ġfable": 7715,
      "Ġfitting": 7716,
      "Ġfiles": 7717,
      "Ġcod": 7718,
      "Ġcup": 7719,
      "Ġhint": 7720,
      "Ġhosp": 7721,
      "Ġhunt": 7722,
      "Ġharsh": 7723,
      "ouch": 7724,
      "arc": 7725,
      "Ġming": 7726,
      "Ġment": 7727,
      "Ġmir": 7728,
      "Ġmast": 7729,
      "Ġpal": 7730,
      "Ġpet": 7731,
      "Ġpine": 7732,
      "Ġpier": 7733,
      "Ġpuff": 7734,
      "Ġpouring": 7735,
      "Ġpalace": 7736,
      "Ġinacc": 7737,
      "Ġtomah": 7738,
      "anse": 7739,
      "Ġdus": 7740,
      "Ġdull": 7741,
      "Ġdared": 7742,
      "Ġdamp": 7743,
      "Ġdying": 7744,
      "Ġdanced": 7745,
      "Ġthro": 7746,
      "Ġthread": 7747,
      "Ġthunder": 7748,
      "asion": 7749,
      "Ġlest": 7750,
      "Ġlod": 7751,
      "ica": 7752,
      "icus": 7753,
      "Ġnest": 7754,
      "Ġnav": 7755,
      "legr": 7756,
      "Ġether": 7757,
      "Ġease": 7758,
      "Ġemer": 7759,
      "Ġbeer": 7760,
      "Ġbeet": 7761,
      "Ġbeings": 7762,
      "Ġbeams": 7763,
      "Ġbewild": 7764,
      "Ġheed": 7765,
      "stal": 7766,
      "stead": 7767,
      "Ġge": 7768,
      "Ġgate": 7769,
      "Ġgips": 7770,
      "Ġgift": 7771,
      "Ġgarden": 7772,
      "entral": 7773,
      "ctors": 7774,
      "Ġreb": 7775,
      "Ġrev": 7776,
      "Ġrever": 7777,
      "Ġreck": 7778,
      "Ġrene": 7779,
      "Ġrelic": 7780,
      "Ġrenown": 7781,
      "ads": 7782,
      "adv": 7783,
      "alian": 7784,
      "Ġstick": 7785,
      "Ġstubb": 7786,
      "ceta": 7787,
      "cending": 7788,
      "sec": 7789,
      "seas": 7790,
      "Ġwhir": 7791,
      "Ġwhither": 7792,
      "rial": 7793,
      "Ġisn": 7794,
      "etary": 7795,
      "idation": 7796,
      "ĠTry": 7797,
      "ĠTaking": 7798,
      "ĠTauri": 7799,
      "ĠTeres": 7800,
      "amous": 7801,
      "amily": 7802,
      "Ġuseless": 7803,
      "Ġwashed": 7804,
      "ĠIF": 7805,
      "ĠIron": 7806,
      "urate": 7807,
      "Ġasser": 7808,
      "ĠPat": 7809,
      "ĠPLE": 7810,
      "ĠPUN": 7811,
      "ĠPaste": 7812,
      "ĠPalace": 7813,
      "ĠPUR": 7814,
      "changed": 7815,
      "ĠAh": 7816,
      "ĠACT": 7817,
      "ĠApennines": 7818,
      "Ġanvil": 7819,
      "ĠSections": 7820,
      "ĠSTRI": 7821,
      "ĠSearch": 7822,
      "ainted": 7823,
      "ĠHad": 7824,
      "ĠHair": 7825,
      "ĠHave": 7826,
      "ĠHamil": 7827,
      "Ġhaven": 7828,
      "herst": 7829,
      "Ġnotifies": 7830,
      "Ġsuited": 7831,
      "Ġconfer": 7832,
      "Ġconcent": 7833,
      "alls": 7834,
      "allel": 7835,
      "ulous": 7836,
      "ulate": 7837,
      "ulted": 7838,
      "ĠTheta": 7839,
      "ooped": 7840,
      "emor": 7841,
      "emnify": 7842,
      "ĠGIVE": 7843,
      "ĠGreene": 7844,
      "think": 7845,
      "third": 7846,
      "thrac": 7847,
      "ĠCousin": 7848,
      "Ġshake": 7849,
      "Ġshalt": 7850,
      "Ġvine": 7851,
      "Ġvice": 7852,
      "Ġvortex": 7853,
      "Ġvalet": 7854,
      "ĠME": 7855,
      "ĠMO": 7856,
      "ĠMc": 7857,
      "ĠMess": 7858,
      "ĠMod": 7859,
      "ĠMER": 7860,
      "ĠMission": 7861,
      "esting": 7862,
      "estead": 7863,
      "Ġ1Â½": 7864,
      "ĠBra": 7865,
      "ĠBattle": 7866,
      "ĠBUT": 7867,
      "ĠBrad": 7868,
      "ĠBiela": 7869,
      "Ġworse": 7870,
      "Ġexagger": 7871,
      "olid": 7872,
      "olation": 7873,
      "acing": 7874,
      "opus": 7875,
      "opern": 7876,
      "Ġproclaim": 7877,
      "ellations": 7878,
      "umors": 7879,
      "uments": 7880,
      "Ġsober": 7881,
      "ĠWILL": 7882,
      "ateau": 7883,
      "Ġallows": 7884,
      "Ġallowing": 7885,
      "Ġdelet": 7886,
      "osm": 7887,
      "ĠFer": 7888,
      "ĠFIT": 7889,
      "ĠFOU": 7890,
      "ĠFaure": 7891,
      "ĠFinally": 7892,
      "assisted": 7893,
      "Ġalas": 7894,
      "unted": 7895,
      "Ġrush": 7896,
      "Ġrubb": 7897,
      "Ġrugged": 7898,
      "ĠLO": 7899,
      "ĠLu": 7900,
      "ĠLat": 7901,
      "ĠLess": 7902,
      "ĠLiber": 7903,
      "ournal": 7904,
      "anting": 7905,
      "Ġsailing": 7906,
      "Ġspell": 7907,
      "Ġspies": 7908,
      "Ġchann": 7909,
      "Ġchasm": 7910,
      "Ġchival": 7911,
      "Ġchallen": 7912,
      "Ġwilling": 7913,
      "ortions": 7914,
      "ĠProof": 7915,
      "ĠNar": 7916,
      "iveness": 7917,
      "ureka": 7918,
      "Ġkill": 7919,
      "Ġkil": 7920,
      "Ġintric": 7921,
      "Ġmanif": 7922,
      "Ġmansion": 7923,
      "Ġmanager": 7924,
      "Ġ(\"": 7925,
      "ĠOut": 7926,
      "ĠOWNER": 7927,
      "ĠDistribut": 7928,
      "ĠDIRECT": 7929,
      "ĠDomini": 7930,
      "Ġmeal": 7931,
      "Ġmeek": 7932,
      "Ġdiss": 7933,
      "Ġdispleas": 7934,
      "ĠEu": 7935,
      "ĠEach": 7936,
      "ĠEarl": 7937,
      "ĠETC": 7938,
      "ĠEVEN": 7939,
      "ĠEureka": 7940,
      "reating": 7941,
      "Ġobsole": 7942,
      "Ġplague": 7943,
      "arts": 7944,
      "Ġcompact": 7945,
      "Ġcompilation": 7946,
      "Ġoutpost": 7947,
      "ĠRob": 7948,
      "ĠRIGHT": 7949,
      "ĠRUBE": 7950,
      "Ġperf": 7951,
      "Ġpercept": 7952,
      "Ġpercent": 7953,
      "Ġtwisted": 7954,
      "Ġenvelop": 7955,
      "uding": 7956,
      "Ġanyway": 7957,
      "ishman": 7958,
      "Ġappoint": 7959,
      "Ġunited": 7960,
      "Ġunenforce": 7961,
      "Ġunlink": 7962,
      "Ġunassisted": 7963,
      "ĠHeaven": 7964,
      "about": 7965,
      "abih": 7966,
      "Ġadds": 7967,
      "Ġtimid": 7968,
      "Ġflows": 7969,
      "Ġflashed": 7970,
      "oded": 7971,
      "ĠItalian": 7972,
      "Ġglory": 7973,
      "Ġglances": 7974,
      "Ġdistress": 7975,
      "Ġknock": 7976,
      "Ġknees": 7977,
      "Ġeyed": 7978,
      "Ġgoals": 7979,
      "ĠYes": 7980,
      "ĠYORK": 7981,
      "ĠUND": 7982,
      "ĠUmb": 7983,
      "ĠURAN": 7984,
      "Ġformations": 7985,
      "Ġthence": 7986,
      "ization": 7987,
      "izens": 7988,
      "Ġlikewise": 7989,
      "Ġshells": 7990,
      "Ġhandled": 7991,
      "Ġremem": 7992,
      "Ġreminded": 7993,
      "ĠInman": 7994,
      "Ġoverl": 7995,
      "Ġovert": 7996,
      "Ġoverhead": 7997,
      "Ġattic": 7998,
      "Ġattitude": 7999
    },
    "merges": [
      [
        "Ġ",
        "t"
      ],
      [
        "h",
        "e"
      ],
      [
        "Ġ",
        "a"
      ],
      [
        "i",
        "n"
      ],
      [
        "Ġt",
        "he"
      ],
      [
        "Ġ",
        "o"
      ],
      [
        "e",
        "r"
      ],
      [
        "Ġ",
        "w"
      ],
      [
        "Ġ",
        "s"
      ],
      [
        "r",
        "e"
      ],
      [
        "n",
        "d"
      ],
      [
        "i",
        "s"
      ],
      [
        "Ġo",
        "f"
      ],
      [
        "o",
        "n"
      ],
      [
        "a",
        "t"
      ],
      [
        "e",
        "d"
      ],
      [
        "e",
        "n"
      ],
      [
        "i",
        "t"
      ],
      [
        "Ġ",
        "b"
      ],
      [
        "Ġ",
        "f"
      ],
      [
        "Ġ",
        "c"
      ],
      [
        "Ġ",
        "h"
      ],
      [
        "o",
        "u"
      ],
      [
        "a",
        "r"
      ],
      [
        "Ġ",
        "m"
      ],
      [
        "o",
        "r"
      ],
      [
        "in",
        "g"
      ],
      [
        "e",
        "s"
      ],
      [
        "Ġ",
        "p"
      ],
      [
        "Ġa",
        "nd"
      ],
      [
        "Ġ",
        "in"
      ],
      [
        "Ġt",
        "o"
      ],
      [
        "a",
        "n"
      ],
      [
        "Ġ",
        "d"
      ],
      [
        "l",
        "l"
      ],
      [
        "Ġt",
        "h"
      ],
      [
        "a",
        "s"
      ],
      [
        "Ġ",
        "l"
      ],
      [
        "r",
        "o"
      ],
      [
        "i",
        "c"
      ],
      [
        "Ġ",
        "n"
      ],
      [
        "u",
        "t"
      ],
      [
        "i",
        "on"
      ],
      [
        "l",
        "e"
      ],
      [
        "Ġ",
        "e"
      ],
      [
        "Ġb",
        "e"
      ],
      [
        "Ġ",
        "he"
      ],
      [
        "s",
        "t"
      ],
      [
        "Ġ",
        "g"
      ],
      [
        "en",
        "t"
      ],
      [
        "c",
        "t"
      ],
      [
        "Ġ",
        "re"
      ],
      [
        "l",
        "y"
      ],
      [
        "a",
        "d"
      ],
      [
        "o",
        "m"
      ],
      [
        "a",
        "l"
      ],
      [
        "it",
        "h"
      ],
      [
        "g",
        "h"
      ],
      [
        "o",
        "t"
      ],
      [
        "v",
        "e"
      ],
      [
        "Ġs",
        "t"
      ],
      [
        "c",
        "e"
      ],
      [
        "s",
        "e"
      ],
      [
        "Ġw",
        "h"
      ],
      [
        "r",
        "i"
      ],
      [
        "Ġw",
        "ith"
      ],
      [
        "o",
        "w"
      ],
      [
        "i",
        "m"
      ],
      [
        "Ġo",
        "n"
      ],
      [
        "Ġ",
        "is"
      ],
      [
        "e",
        "t"
      ],
      [
        "Ġ",
        "it"
      ],
      [
        "Ġth",
        "at"
      ],
      [
        "i",
        "d"
      ],
      [
        "Ġ",
        "T"
      ],
      [
        "Ġf",
        "or"
      ],
      [
        "Ġh",
        "is"
      ],
      [
        "a",
        "m"
      ],
      [
        "l",
        "d"
      ],
      [
        "Ġ",
        "u"
      ],
      [
        "i",
        "r"
      ],
      [
        "v",
        "er"
      ],
      [
        "Ġw",
        "as"
      ],
      [
        "Ġ",
        "I"
      ],
      [
        ".",
        "."
      ],
      [
        "u",
        "r"
      ],
      [
        "Ġa",
        "s"
      ],
      [
        "a",
        "y"
      ],
      [
        "gh",
        "t"
      ],
      [
        "Ġ",
        "P"
      ],
      [
        "Ġ",
        "y"
      ],
      [
        "Ġa",
        "t"
      ],
      [
        "c",
        "h"
      ],
      [
        "t",
        "er"
      ],
      [
        "Ġ",
        "A"
      ],
      [
        "Ġa",
        "n"
      ],
      [
        "e",
        "ct"
      ],
      [
        "at",
        "ion"
      ],
      [
        "Ġ",
        "S"
      ],
      [
        "i",
        "ll"
      ],
      [
        "a",
        "in"
      ],
      [
        "Ġ",
        "H"
      ],
      [
        "Ġ",
        "\""
      ],
      [
        "Ġh",
        "a"
      ],
      [
        "he",
        "r"
      ],
      [
        "Ġn",
        "ot"
      ],
      [
        "Ġb",
        "y"
      ],
      [
        "Ġy",
        "ou"
      ],
      [
        "Ġo",
        "r"
      ],
      [
        "ic",
        "h"
      ],
      [
        "Ġs",
        "u"
      ],
      [
        "Ġs",
        "e"
      ],
      [
        "Ġc",
        "on"
      ],
      [
        "a",
        "ll"
      ],
      [
        "i",
        "f"
      ],
      [
        "u",
        "l"
      ],
      [
        "r",
        "a"
      ],
      [
        "i",
        "l"
      ],
      [
        "ro",
        "m"
      ],
      [
        "ĠT",
        "he"
      ],
      [
        "Ġwh",
        "ich"
      ],
      [
        "o",
        "o"
      ],
      [
        "e",
        "m"
      ],
      [
        "p",
        "p"
      ],
      [
        "Ġ",
        "G"
      ],
      [
        "t",
        "h"
      ],
      [
        "es",
        "s"
      ],
      [
        "Ġ",
        "C"
      ],
      [
        "Ġs",
        "h"
      ],
      [
        "u",
        "s"
      ],
      [
        "Ġth",
        "is"
      ],
      [
        "k",
        "e"
      ],
      [
        "Ġh",
        "ad"
      ],
      [
        "Ġc",
        "om"
      ],
      [
        "e",
        "l"
      ],
      [
        "Ġ",
        "v"
      ],
      [
        "Ġm",
        "o"
      ],
      [
        "Ġ",
        "M"
      ],
      [
        "es",
        "t"
      ],
      [
        "Ġ",
        "1"
      ],
      [
        "b",
        "le"
      ],
      [
        "g",
        "e"
      ],
      [
        "i",
        "ght"
      ],
      [
        "'",
        "s"
      ],
      [
        "q",
        "u"
      ],
      [
        "Ġf",
        "rom"
      ],
      [
        "Ġ",
        "B"
      ],
      [
        "Ġn",
        "e"
      ],
      [
        "Ġw",
        "or"
      ],
      [
        "Ġe",
        "x"
      ],
      [
        "er",
        "s"
      ],
      [
        "Ġa",
        "re"
      ],
      [
        "re",
        "s"
      ],
      [
        "is",
        "t"
      ],
      [
        "o",
        "l"
      ],
      [
        "b",
        "er"
      ],
      [
        "Ġst",
        "ar"
      ],
      [
        "ou",
        "ld"
      ],
      [
        "a",
        "c"
      ],
      [
        "..",
        ".."
      ],
      [
        "o",
        "p"
      ],
      [
        "Ġp",
        "ro"
      ],
      [
        "e",
        "ll"
      ],
      [
        "ou",
        "s"
      ],
      [
        "u",
        "m"
      ],
      [
        "Ġh",
        "im"
      ],
      [
        "ar",
        "d"
      ],
      [
        "Ġs",
        "o"
      ],
      [
        "Ġw",
        "he"
      ],
      [
        "i",
        "ve"
      ],
      [
        "Ġha",
        "ve"
      ],
      [
        "a",
        "nd"
      ],
      [
        "u",
        "st"
      ],
      [
        "ou",
        "nd"
      ],
      [
        "Ġ",
        "W"
      ],
      [
        "at",
        "e"
      ],
      [
        "a",
        "p"
      ],
      [
        "Ġa",
        "ll"
      ],
      [
        "Ġd",
        "e"
      ],
      [
        "as",
        "t"
      ],
      [
        "o",
        "s"
      ],
      [
        "Ġ",
        "F"
      ],
      [
        "Ġb",
        "ut"
      ],
      [
        "j",
        "ect"
      ],
      [
        "er",
        "e"
      ],
      [
        "as",
        "s"
      ],
      [
        "Ġa",
        "l"
      ],
      [
        "re",
        "d"
      ],
      [
        "u",
        "n"
      ],
      [
        "Ġ",
        "r"
      ],
      [
        "Ġu",
        "p"
      ],
      [
        "Ġ",
        "L"
      ],
      [
        "ou",
        "r"
      ],
      [
        "an",
        "t"
      ],
      [
        "t",
        "her"
      ],
      [
        "Ġon",
        "e"
      ],
      [
        "Ġs",
        "a"
      ],
      [
        "Ġwor",
        "k"
      ],
      [
        "Ġs",
        "p"
      ],
      [
        "i",
        "e"
      ],
      [
        "Ġc",
        "h"
      ],
      [
        "a",
        "k"
      ],
      [
        "-",
        "-"
      ],
      [
        "Ġw",
        "ill"
      ],
      [
        "ou",
        "t"
      ],
      [
        "or",
        "t"
      ],
      [
        "Ġw",
        "ere"
      ],
      [
        "e",
        "ar"
      ],
      [
        "ĠP",
        "ro"
      ],
      [
        "Ġhe",
        "r"
      ],
      [
        "om",
        "e"
      ],
      [
        "Ġwh",
        "o"
      ],
      [
        "Ġ",
        "N"
      ],
      [
        "i",
        "g"
      ],
      [
        "n",
        "t"
      ],
      [
        "i",
        "v"
      ],
      [
        "ut",
        "en"
      ],
      [
        "u",
        "re"
      ],
      [
        "ber",
        "g"
      ],
      [
        "uten",
        "berg"
      ],
      [
        "Ġ",
        "k"
      ],
      [
        "Ġin",
        "t"
      ],
      [
        "Ġw",
        "e"
      ],
      [
        "Ġm",
        "an"
      ],
      [
        "Ġ",
        "("
      ],
      [
        "Ġthe",
        "ir"
      ],
      [
        "a",
        "g"
      ],
      [
        "it",
        "y"
      ],
      [
        "on",
        "g"
      ],
      [
        "Ġa",
        "r"
      ],
      [
        "Ġ",
        "O"
      ],
      [
        "at",
        "ed"
      ],
      [
        "Ġ",
        "D"
      ],
      [
        "Ġa",
        "b"
      ],
      [
        "a",
        "ble"
      ],
      [
        "Ġd",
        "o"
      ],
      [
        ",",
        "\""
      ],
      [
        "ver",
        "y"
      ],
      [
        "c",
        "c"
      ],
      [
        "Ġm",
        "e"
      ],
      [
        ".",
        "\""
      ],
      [
        "Ġd",
        "is"
      ],
      [
        "an",
        "ce"
      ],
      [
        "in",
        "e"
      ],
      [
        "Ġ",
        "E"
      ],
      [
        "oo",
        "k"
      ],
      [
        "Ġn",
        "o"
      ],
      [
        "p",
        "t"
      ],
      [
        "ou",
        "gh"
      ],
      [
        "re",
        "at"
      ],
      [
        "ĠG",
        "utenberg"
      ],
      [
        "Ġo",
        "b"
      ],
      [
        "Ġp",
        "l"
      ],
      [
        "p",
        "er"
      ],
      [
        "Ġthe",
        "y"
      ],
      [
        "it",
        "t"
      ],
      [
        "in",
        "d"
      ],
      [
        "ar",
        "t"
      ],
      [
        "am",
        "e"
      ],
      [
        "Ġa",
        "g"
      ],
      [
        "â",
        "Ģ"
      ],
      [
        "T",
        "he"
      ],
      [
        "Ġcom",
        "p"
      ],
      [
        "i",
        "es"
      ],
      [
        "r",
        "y"
      ],
      [
        "oo",
        "d"
      ],
      [
        "Ġo",
        "ut"
      ],
      [
        "Ġbe",
        "en"
      ],
      [
        "Ġ",
        "R"
      ],
      [
        "ĠPro",
        "ject"
      ],
      [
        "Ġc",
        "an"
      ],
      [
        "âĢ",
        "Ķ"
      ],
      [
        "Ġthe",
        "m"
      ],
      [
        "Ġp",
        "er"
      ],
      [
        "Ġf",
        "e"
      ],
      [
        "Ġit",
        "s"
      ],
      [
        "ĠP",
        "ut"
      ],
      [
        "Ġt",
        "w"
      ],
      [
        "Ġ",
        "en"
      ],
      [
        "c",
        "i"
      ],
      [
        "u",
        "d"
      ],
      [
        "Ġan",
        "y"
      ],
      [
        "o",
        "re"
      ],
      [
        "a",
        "ce"
      ],
      [
        "!",
        "\""
      ],
      [
        "v",
        "en"
      ],
      [
        "n",
        "am"
      ],
      [
        "he",
        "d"
      ],
      [
        "is",
        "h"
      ],
      [
        "Ġl",
        "e"
      ],
      [
        "Ġsa",
        "id"
      ],
      [
        "f",
        "f"
      ],
      [
        "o",
        "nd"
      ],
      [
        "p",
        "l"
      ],
      [
        "ation",
        "s"
      ],
      [
        "o",
        "st"
      ],
      [
        "Ġa",
        "pp"
      ],
      [
        "id",
        "e"
      ],
      [
        "Ġu",
        "n"
      ],
      [
        "en",
        "ce"
      ],
      [
        "ar",
        "y"
      ],
      [
        "Ġstar",
        "s"
      ],
      [
        "t",
        "ain"
      ],
      [
        "all",
        "y"
      ],
      [
        "Ġwhe",
        "n"
      ],
      [
        "Ġ",
        "ro"
      ],
      [
        "ing",
        "s"
      ],
      [
        "Ġl",
        "i"
      ],
      [
        "ĠPut",
        "nam"
      ],
      [
        "Ġo",
        "ther"
      ],
      [
        "ar",
        "k"
      ],
      [
        "e",
        "nd"
      ],
      [
        "ri",
        "ght"
      ],
      [
        "ĠH",
        "e"
      ],
      [
        "se",
        "l"
      ],
      [
        "Ġth",
        "an"
      ],
      [
        "Ġw",
        "ould"
      ],
      [
        "Ġh",
        "as"
      ],
      [
        "Ġint",
        "o"
      ],
      [
        "a",
        "b"
      ],
      [
        "g",
        "l"
      ],
      [
        "Ġu",
        "s"
      ],
      [
        "Ġa",
        "d"
      ],
      [
        "o",
        "se"
      ],
      [
        "Ġ",
        "im"
      ],
      [
        "on",
        "e"
      ],
      [
        "ou",
        "nt"
      ],
      [
        "Ġt",
        "im"
      ],
      [
        "Ġf",
        "l"
      ],
      [
        "o",
        "d"
      ],
      [
        "ĠI",
        "t"
      ],
      [
        "Ġmo",
        "re"
      ],
      [
        "a",
        "re"
      ],
      [
        "m",
        "ent"
      ],
      [
        "Ġc",
        "l"
      ],
      [
        "Ġm",
        "ay"
      ],
      [
        "Ġt",
        "r"
      ],
      [
        "Ġs",
        "ome"
      ],
      [
        "c",
        "l"
      ],
      [
        "i",
        "re"
      ],
      [
        "Ġthe",
        "re"
      ],
      [
        "0",
        "0"
      ],
      [
        "ur",
        "n"
      ],
      [
        "c",
        "k"
      ],
      [
        "Ġg",
        "l"
      ],
      [
        "w",
        "n"
      ],
      [
        "ion",
        "s"
      ],
      [
        "ow",
        "n"
      ],
      [
        "re",
        "e"
      ],
      [
        "Ġd",
        "ist"
      ],
      [
        "i",
        "le"
      ],
      [
        "Ġ",
        "qu"
      ],
      [
        "....",
        "...."
      ],
      [
        "Ġm",
        "y"
      ],
      [
        "a",
        "ke"
      ],
      [
        "e",
        "p"
      ],
      [
        "a",
        "u"
      ],
      [
        "Ġk",
        "n"
      ],
      [
        "p",
        "h"
      ],
      [
        "Ġg",
        "reat"
      ],
      [
        "Ġup",
        "on"
      ],
      [
        "ad",
        "e"
      ],
      [
        "f",
        "ter"
      ],
      [
        "Ġab",
        "out"
      ],
      [
        "r",
        "on"
      ],
      [
        "ay",
        "s"
      ],
      [
        "Ġs",
        "m"
      ],
      [
        "u",
        "ll"
      ],
      [
        "Ġg",
        "r"
      ],
      [
        "a",
        "ch"
      ],
      [
        "i",
        "an"
      ],
      [
        "Ġ",
        "very"
      ],
      [
        "ac",
        "k"
      ],
      [
        "Ġa",
        "cc"
      ],
      [
        "Ġe",
        "y"
      ],
      [
        "le",
        "ct"
      ],
      [
        "ri",
        "b"
      ],
      [
        "o",
        "ll"
      ],
      [
        "ou",
        "ght"
      ],
      [
        "in",
        "t"
      ],
      [
        "en",
        "er"
      ],
      [
        "v",
        "ed"
      ],
      [
        "an",
        "g"
      ],
      [
        "Ġo",
        "ur"
      ],
      [
        "o",
        "g"
      ],
      [
        "Ġtw",
        "o"
      ],
      [
        "h",
        "ing"
      ],
      [
        "nd",
        "er"
      ],
      [
        "h",
        "at"
      ],
      [
        "Ġ",
        "if"
      ],
      [
        "Ġg",
        "o"
      ],
      [
        "Ġ",
        "Y"
      ],
      [
        "res",
        "s"
      ],
      [
        "w",
        "ard"
      ],
      [
        "Ġ",
        "2"
      ],
      [
        "Ġ",
        "U"
      ],
      [
        "a",
        "ge"
      ],
      [
        "itt",
        "le"
      ],
      [
        "or",
        "d"
      ],
      [
        "Ġfor",
        "m"
      ],
      [
        "Ġthe",
        "n"
      ],
      [
        "i",
        "z"
      ],
      [
        "Ġl",
        "ittle"
      ],
      [
        "Ġf",
        "ir"
      ],
      [
        "Ġcom",
        "m"
      ],
      [
        "Ġl",
        "ook"
      ],
      [
        "Ġli",
        "ke"
      ],
      [
        "Ġtim",
        "e"
      ],
      [
        "Ġs",
        "he"
      ],
      [
        "it",
        "e"
      ],
      [
        "es",
        "c"
      ],
      [
        "u",
        "e"
      ],
      [
        "Ġp",
        "re"
      ],
      [
        "Ġthe",
        "se"
      ],
      [
        "a",
        "ct"
      ],
      [
        "Ġa",
        "fter"
      ],
      [
        "Ġp",
        "art"
      ],
      [
        "sel",
        "f"
      ],
      [
        "Ġha",
        "nd"
      ],
      [
        "Ġa",
        "m"
      ],
      [
        "Ġre",
        "m"
      ],
      [
        "ĠI",
        "n"
      ],
      [
        "Ġc",
        "op"
      ],
      [
        "Ġon",
        "ly"
      ],
      [
        "a",
        "v"
      ],
      [
        "Ġm",
        "en"
      ],
      [
        "in",
        "k"
      ],
      [
        "Ġo",
        "ver"
      ],
      [
        "Ġcon",
        "st"
      ],
      [
        "i",
        "ed"
      ],
      [
        "Ġm",
        "ade"
      ],
      [
        "Ġat",
        "t"
      ],
      [
        "f",
        "or"
      ],
      [
        "t",
        "e"
      ],
      [
        "u",
        "b"
      ],
      [
        "i",
        "ly"
      ],
      [
        "ic",
        "e"
      ],
      [
        "t",
        "y"
      ],
      [
        "Ġag",
        "ain"
      ],
      [
        "w",
        "e"
      ],
      [
        "c",
        "es"
      ],
      [
        "f",
        "ore"
      ],
      [
        "s",
        "er"
      ],
      [
        "Ġ",
        "j"
      ],
      [
        "Ġp",
        "o"
      ],
      [
        "ĠT",
        "h"
      ],
      [
        "f",
        "er"
      ],
      [
        "r",
        "it"
      ],
      [
        "Ġm",
        "ust"
      ],
      [
        "Ġfir",
        "st"
      ],
      [
        "Ġb",
        "l"
      ],
      [
        "Ġp",
        "os"
      ],
      [
        "Ġse",
        "e"
      ],
      [
        "?",
        "\""
      ],
      [
        "s",
        "o"
      ],
      [
        "f",
        "ul"
      ],
      [
        "u",
        "ch"
      ],
      [
        "Ġyou",
        "r"
      ],
      [
        "t",
        "he"
      ],
      [
        "Ġre",
        "p"
      ],
      [
        "or",
        "s"
      ],
      [
        "o",
        "ld"
      ],
      [
        "Ġth",
        "r"
      ],
      [
        "Ġn",
        "ow"
      ],
      [
        "Ġbe",
        "t"
      ],
      [
        "Ġwh",
        "at"
      ],
      [
        "er",
        "m"
      ],
      [
        "it",
        "ion"
      ],
      [
        "Ġto",
        "o"
      ],
      [
        "an",
        "s"
      ],
      [
        "Ġe",
        "lect"
      ],
      [
        "Ġne",
        "ar"
      ],
      [
        "Ġu",
        "nder"
      ],
      [
        "f",
        "t"
      ],
      [
        "Ġy",
        "ear"
      ],
      [
        "Ġin",
        "ter"
      ],
      [
        "ow",
        "er"
      ],
      [
        "Ġsh",
        "ould"
      ],
      [
        "Ġs",
        "c"
      ],
      [
        "at",
        "es"
      ],
      [
        "Ġin",
        "d"
      ],
      [
        "Ġbe",
        "fore"
      ],
      [
        "Ġsu",
        "ch"
      ],
      [
        "Ġof",
        "f"
      ],
      [
        "Ġcon",
        "t"
      ],
      [
        "s",
        "i"
      ],
      [
        "res",
        "ent"
      ],
      [
        "Ġwhe",
        "re"
      ],
      [
        "r",
        "u"
      ],
      [
        "at",
        "er"
      ],
      [
        "Ġmo",
        "st"
      ],
      [
        "Ġre",
        "s"
      ],
      [
        "ic",
        "k"
      ],
      [
        "Ġim",
        "p"
      ],
      [
        "em",
        "ent"
      ],
      [
        ")",
        ","
      ],
      [
        "c",
        "o"
      ],
      [
        "w",
        "ith"
      ],
      [
        "or",
        "n"
      ],
      [
        "Ġl",
        "ong"
      ],
      [
        "Ġ",
        "J"
      ],
      [
        "at",
        "ter"
      ],
      [
        "Ġwork",
        "s"
      ],
      [
        "Ġbe",
        "ing"
      ],
      [
        "i",
        "ous"
      ],
      [
        "gl",
        "ass"
      ],
      [
        "c",
        "ed"
      ],
      [
        "re",
        "n"
      ],
      [
        "Ġc",
        "ould"
      ],
      [
        "if",
        "e"
      ],
      [
        "Ġob",
        "ser"
      ],
      [
        "ic",
        "al"
      ],
      [
        "Ġe",
        "ven"
      ],
      [
        "ener",
        "al"
      ],
      [
        "Ġcop",
        "y"
      ],
      [
        "d",
        "er"
      ],
      [
        "a",
        "il"
      ],
      [
        "t",
        "ed"
      ],
      [
        "is",
        "s"
      ],
      [
        "Ġthr",
        "ough"
      ],
      [
        "Ġse",
        "em"
      ],
      [
        "a",
        "ir"
      ],
      [
        "as",
        "e"
      ],
      [
        "Ġ",
        "V"
      ],
      [
        "Ġm",
        "uch"
      ],
      [
        "ig",
        "n"
      ],
      [
        "o",
        "y"
      ],
      [
        "Ġp",
        "ass"
      ],
      [
        "l",
        "ed"
      ],
      [
        "o",
        "ve"
      ],
      [
        "Ġ",
        "3"
      ],
      [
        "Ġo",
        "ld"
      ],
      [
        "Ġe",
        "ar"
      ],
      [
        "Ġsu",
        "n"
      ],
      [
        "E",
        "R"
      ],
      [
        "d",
        "u"
      ],
      [
        "ĠB",
        "ut"
      ],
      [
        "i",
        "gh"
      ],
      [
        "it",
        "ed"
      ],
      [
        "Ġg",
        "ood"
      ],
      [
        "he",
        "s"
      ],
      [
        "ct",
        "ion"
      ],
      [
        "ĠS",
        "t"
      ],
      [
        "rib",
        "ut"
      ],
      [
        "a",
        "w"
      ],
      [
        "Ġcon",
        "s"
      ],
      [
        "Ġw",
        "ell"
      ],
      [
        "at",
        "her"
      ],
      [
        "Ġl",
        "ar"
      ],
      [
        "oll",
        "ow"
      ],
      [
        "p",
        "s"
      ],
      [
        "Ġh",
        "ow"
      ],
      [
        "w",
        "ay"
      ],
      [
        "Ġl",
        "ight"
      ],
      [
        "Ġbe",
        "c"
      ],
      [
        "for",
        "m"
      ],
      [
        "Ġre",
        "t"
      ],
      [
        "Ġwh",
        "ile"
      ],
      [
        "v",
        "ing"
      ],
      [
        "en",
        "se"
      ],
      [
        "Ġex",
        "p"
      ],
      [
        "with",
        "in"
      ],
      [
        "u",
        "nd"
      ],
      [
        "ect",
        "ed"
      ],
      [
        "r",
        "an"
      ],
      [
        "Ġp",
        "e"
      ],
      [
        "Ġman",
        "y"
      ],
      [
        "Ġconst",
        "ell"
      ],
      [
        "m",
        "er"
      ],
      [
        "Ġre",
        "g"
      ],
      [
        "at",
        "h"
      ],
      [
        "Ġbe",
        "l"
      ],
      [
        "ro",
        "w"
      ],
      [
        "Ġsm",
        "all"
      ],
      [
        "l",
        "ess"
      ],
      [
        "u",
        "al"
      ],
      [
        "Ġf",
        "ound"
      ],
      [
        "ul",
        "ar"
      ],
      [
        "c",
        "or"
      ],
      [
        "re",
        "t"
      ],
      [
        "Ġf",
        "ollow"
      ],
      [
        "Ġth",
        "ought"
      ],
      [
        "Ġse",
        "en"
      ],
      [
        "Ġ",
        "ent"
      ],
      [
        "Ġth",
        "ose"
      ],
      [
        "Ġwith",
        "out"
      ],
      [
        "ĠI",
        "f"
      ],
      [
        "a",
        "red"
      ],
      [
        "n",
        "ess"
      ],
      [
        "Ġs",
        "l"
      ],
      [
        "Ġp",
        "r"
      ],
      [
        "t",
        "on"
      ],
      [
        "Ġ",
        "ra"
      ],
      [
        "Ġd",
        "own"
      ],
      [
        "Ġe",
        "m"
      ],
      [
        "ron",
        "ic"
      ],
      [
        "is",
        "e"
      ],
      [
        "en",
        "s"
      ],
      [
        "Ġre",
        "ad"
      ],
      [
        "Ġa",
        "c"
      ],
      [
        "Ġs",
        "ur"
      ],
      [
        "Ġhe",
        "ad"
      ],
      [
        "ie",
        "ld"
      ],
      [
        "ĠTh",
        "is"
      ],
      [
        "Ġelect",
        "ronic"
      ],
      [
        "Ġf",
        "ar"
      ],
      [
        "Ġd",
        "on"
      ],
      [
        "Ġd",
        "if"
      ],
      [
        "ĠA",
        "nd"
      ],
      [
        "i",
        "x"
      ],
      [
        "Ġm",
        "ill"
      ],
      [
        "Ġv",
        "is"
      ],
      [
        "Ġey",
        "es"
      ],
      [
        "ot",
        "her"
      ],
      [
        "or",
        "y"
      ],
      [
        "ĠA",
        "r"
      ],
      [
        "Ġc",
        "all"
      ],
      [
        "ic",
        "t"
      ],
      [
        "Ġsp",
        "e"
      ],
      [
        "Ġkn",
        "ow"
      ],
      [
        "Ġo",
        "wn"
      ],
      [
        "Ġm",
        "et"
      ],
      [
        "Ġl",
        "ife"
      ],
      [
        "Ġsu",
        "pp"
      ],
      [
        "Ġse",
        "c"
      ],
      [
        "ul",
        "t"
      ],
      [
        "Ġpl",
        "an"
      ],
      [
        "Ġd",
        "es"
      ],
      [
        "ak",
[...]
